{
  "version": "1.0",
  "truncation": null,
  "padding": null,
  "added_tokens": [
    {
      "id": 0,
      "content": "<PAD>",
      "single_word": false,
      "lstrip": false,
      "rstrip": false,
      "normalized": false,
      "special": true
    },
    {
      "id": 1,
      "content": "<START>",
      "single_word": false,
      "lstrip": false,
      "rstrip": false,
      "normalized": false,
      "special": true
    },
    {
      "id": 2,
      "content": "<END>",
      "single_word": false,
      "lstrip": false,
      "rstrip": false,
      "normalized": false,
      "special": true
    },
    {
      "id": 3,
      "content": "<UNK>",
      "single_word": false,
      "lstrip": false,
      "rstrip": false,
      "normalized": false,
      "special": true
    }
  ],
  "normalizer": null,
  "pre_tokenizer": {
    "type": "Whitespace"
  },
  "post_processor": null,
  "decoder": null,
  "model": {
    "type": "BPE",
    "dropout": null,
    "unk_token": "<UNK>",
    "continuing_subword_prefix": null,
    "end_of_word_suffix": null,
    "fuse_unk": false,
    "byte_fallback": false,
    "ignore_merges": false,
    "vocab": {
      "<PAD>": 0,
      "<START>": 1,
      "<END>": 2,
      "<UNK>": 3,
      "!": 4,
      ".": 5,
      "?": 6,
      "a": 7,
      "b": 8,
      "c": 9,
      "d": 10,
      "e": 11,
      "f": 12,
      "g": 13,
      "h": 14,
      "i": 15,
      "j": 16,
      "k": 17,
      "l": 18,
      "m": 19,
      "n": 20,
      "o": 21,
      "p": 22,
      "q": 23,
      "r": 24,
      "s": 25,
      "t": 26,
      "u": 27,
      "v": 28,
      "w": 29,
      "x": 30,
      "y": 31,
      "z": 32,
      "th": 33,
      "the": 34,
      "in": 35,
      "on": 36,
      "re": 37,
      "an": 38,
      "at": 39,
      "en": 40,
      "is": 41,
      "er": 42,
      "or": 43,
      "al": 44,
      "ion": 45,
      "to": 46,
      "it": 47,
      "of": 48,
      "es": 49,
      "ou": 50,
      "and": 51,
      "ed": 52,
      "ro": 53,
      "ar": 54,
      "st": 55,
      "ing": 56,
      "ent": 57,
      "ic": 58,
      "as": 59,
      "le": 60,
      "om": 61,
      "be": 62,
      "ve": 63,
      "that": 64,
      "se": 65,
      "we": 66,
      "ct": 67,
      "pe": 68,
      "for": 69,
      "il": 70,
      "de": 71,
      "ly": 72,
      "ation": 73,
      "ment": 74,
      "com": 75,
      "wh": 76,
      "pro": 77,
      "con": 78,
      "no": 79,
      "res": 80,
      "un": 81,
      "me": 82,
      "po": 83,
      "eu": 84,
      "su": 85,
      "li": 86,
      "this": 87,
      "are": 88,
      "ch": 89,
      "ce": 90,
      "ha": 91,
      "id": 92,
      "ut": 93,
      "ld": 94,
      "ra": 95,
      "ort": 96,
      "so": 97,
      "comm": 98,
      "ver": 99,
      "im": 100,
      "euro": 101,
      "port": 102,
      "ul": 103,
      "wi": 104,
      "ri": 105,
      "europe": 106,
      "lo": 107,
      "with": 108,
      "not": 109,
      "ab": 110,
      "cou": 111,
      "ag": 112,
      "te": 113,
      "ad": 114,
      "ne": 115,
      "ill": 116,
      "have": 117,
      "ir": 118,
      "ke": 119,
      "ter": 120,
      "par": 121,
      "sion": 122,
      "ate": 123,
      "gh": 124,
      "mo": 125,
      "ould": 126,
      "ay": 127,
      "ich": 128,
      "ur": 129,
      "am": 130,
      "ity": 131,
      "our": 132,
      "which": 133,
      "op": 134,
      "european": 135,
      "pres": 136,
      "sh": 137,
      "ci": 138,
      "ex": 139,
      "all": 140,
      "us": 141,
      "ive": 142,
      "ac": 143,
      "by": 144,
      "will": 145,
      "coun": 146,
      "ust": 147,
      "ta": 148,
      "ission": 149,
      "ma": 150,
      "has": 151,
      "ber": 152,
      "ess": 153,
      "qu": 154,
      "ts": 155,
      "fe": 156,
      "if": 157,
      "ge": 158,
      "ther": 159,
      "ies": 160,
      "commission": 161,
      "pos": 162,
      "mr": 163,
      "co": 164,
      "end": 165,
      "wor": 166,
      "ant": 167,
      "est": 168,
      "act": 169,
      "mber": 170,
      "do": 171,
      "there": 172,
      "he": 173,
      "out": 174,
      "go": 175,
      "ap": 176,
      "lic": 177,
      "but": 178,
      "ions": 179,
      "si": 180,
      "fo": 181,
      "one": 182,
      "ers": 183,
      "presid": 184,
      "man": 185,
      "tr": 186,
      "em": 187,
      "ho": 188,
      "reg": 189,
      "la": 190,
      "would": 191,
      "can": 192,
      "also": 193,
      "part": 194,
      "ament": 195,
      "member": 196,
      "should": 197,
      "iv": 198,
      "ard": 199,
      "president": 200,
      "rom": 201,
      "und": 202,
      "ally": 203,
      "from": 204,
      "ren": 205,
      "ates": 206,
      "ble": 207,
      "ure": 208,
      "able": 209,
      "str": 210,
      "must": 211,
      "very": 212,
      "you": 213,
      "du": 214,
      "vo": 215,
      "parli": 216,
      "parliament": 217,
      "work": 218,
      "gr": 219,
      "ist": 220,
      "ans": 221,
      "ations": 222,
      "au": 223,
      "ree": 224,
      "ght": 225,
      "ple": 226,
      "fin": 227,
      "vi": 228,
      "been": 229,
      "union": 230,
      "its": 231,
      "ments": 232,
      "ish": 233,
      "di": 234,
      "more": 235,
      "ti": 236,
      "tri": 237,
      "report": 238,
      "now": 239,
      "ous": 240,
      "sa": 241,
      "cial": 242,
      "int": 243,
      "reat": 244,
      "cr": 245,
      "states": 246,
      "fic": 247,
      "od": 248,
      "ud": 249,
      "fore": 250,
      "other": 251,
      "ary": 252,
      "per": 253,
      "dis": 254,
      "pre": 255,
      "pport": 256,
      "was": 257,
      "need": 258,
      "cil": 259,
      "cess": 260,
      "ef": 261,
      "ical": 262,
      "cl": 263,
      "pl": 264,
      "like": 265,
      "these": 266,
      "cer": 267,
      "ance": 268,
      "they": 269,
      "ain": 270,
      "form": 271,
      "who": 272,
      "ult": 273,
      "council": 274,
      "what": 275,
      "their": 276,
      "ction": 277,
      "min": 278,
      "ll": 279,
      "ord": 280,
      "ye": 281,
      "import": 282,
      "polic": 283,
      "ev": 284,
      "ome": 285,
      "king": 286,
      "ach": 287,
      "up": 288,
      "cy": 289,
      "mar": 290,
      "inter": 291,
      "pr": 292,
      "ition": 293,
      "ctive": 294,
      "ob": 295,
      "ted": 296,
      "tra": 297,
      "propos": 298,
      "cre": 299,
      "leg": 300,
      "ong": 301,
      "fa": 302,
      "ational": 303,
      "spe": 304,
      "my": 305,
      "ser": 306,
      "than": 307,
      "je": 308,
      "af": 309,
      "gn": 310,
      "some": 311,
      "gu": 312,
      "new": 313,
      "ces": 314,
      "tries": 315,
      "iti": 316,
      "countries": 317,
      "way": 318,
      "ind": 319,
      "ence": 320,
      "ting": 321,
      "commit": 322,
      "bet": 323,
      "peop": 324,
      "ated": 325,
      "low": 326,
      "lop": 327,
      "velop": 328,
      "ens": 329,
      "develop": 330,
      "cau": 331,
      "ol": 332,
      "cur": 333,
      "ise": 334,
      "about": 335,
      "support": 336,
      "ities": 337,
      "econ": 338,
      "fir": 339,
      "agree": 340,
      "econom": 341,
      "national": 342,
      "people": 343,
      "cause": 344,
      "age": 345,
      "time": 346,
      "ough": 347,
      "ution": 348,
      "year": 349,
      "ful": 350,
      "important": 351,
      "ced": 352,
      "policy": 353,
      "only": 354,
      "ms": 355,
      "lit": 356,
      "whe": 357,
      "day": 358,
      "cont": 359,
      "under": 360,
      "tain": 361,
      "partic": 362,
      "red": 363,
      "cle": 364,
      "ast": 365,
      "ty": 366,
      "because": 367,
      "ility": 368,
      "any": 369,
      "thing": 370,
      "again": 371,
      "ener": 372,
      "issu": 373,
      "just": 374,
      "ject": 375,
      "wn": 376,
      "proposal": 377,
      "come": 378,
      "quest": 379,
      "tee": 380,
      "prov": 381,
      "oun": 382,
      "ular": 383,
      "eve": 384,
      "dire": 385,
      "gy": 386,
      "ghts": 387,
      "ase": 388,
      "get": 389,
      "ose": 390,
      "trans": 391,
      "prog": 392,
      "fact": 393,
      "pt": 394,
      "clear": 395,
      "such": 396,
      "hu": 397,
      "them": 398,
      "ack": 399,
      "rights": 400,
      "take": 401,
      "commun": 402,
      "ice": 403,
      "fund": 404,
      "pect": 405,
      "polit": 406,
      "ia": 407,
      "sel": 408,
      "therefore": 409,
      "present": 410,
      "when": 411,
      "sub": 412,
      "first": 413,
      "dif": 414,
      "pri": 415,
      "over": 416,
      "oper": 417,
      "bo": 418,
      "stru": 419,
      "dec": 420,
      "those": 421,
      "ative": 422,
      "pon": 423,
      "ub": 424,
      "wever": 425,
      "however": 426,
      "particular": 427,
      "rel": 428,
      "into": 429,
      "inte": 430,
      "concer": 431,
      "economic": 432,
      "ip": 433,
      "sible": 434,
      "say": 435,
      "ial": 436,
      "make": 437,
      "produ": 438,
      "ass": 439,
      "marke": 440,
      "ue": 441,
      "concern": 442,
      "stit": 443,
      "feren": 444,
      "sy": 445,
      "ween": 446,
      "between": 447,
      "mon": 448,
      "sure": 449,
      "ures": 450,
      "deb": 451,
      "amend": 452,
      "cent": 453,
      "oup": 454,
      "um": 455,
      "group": 456,
      "ine": 457,
      "proble": 458,
      "ink": 459,
      "committee": 460,
      "social": 461,
      "being": 462,
      "cond": 463,
      "try": 464,
      "chan": 465,
      "comp": 466,
      "cus": 467,
      "many": 468,
      "bas": 469,
      "respon": 470,
      "point": 471,
      "emp": 472,
      "read": 473,
      "beli": 474,
      "human": 475,
      "pub": 476,
      "sit": 477,
      "vern": 478,
      "govern": 479,
      "br": 480,
      "ating": 481,
      "cons": 482,
      "mat": 483,
      "political": 484,
      "ress": 485,
      "state": 486,
      "made": 487,
      "vie": 488,
      "regard": 489,
      "cour": 490,
      "igh": 491,
      "xt": 492,
      "eur": 493,
      "most": 494,
      "order": 495,
      "ency": 496,
      "were": 497,
      "rest": 498,
      "fi": 499,
      "public": 500,
      "ural": 501,
      "great": 502,
      "know": 503,
      "med": 504,
      "use": 505,
      "stand": 506,
      "nu": 507,
      "view": 508,
      "finan": 509,
      "stem": 510,
      "ound": 511,
      "believe": 512,
      "development": 513,
      "ks": 514,
      "sp": 515,
      "where": 516,
      "alth": 517,
      "commissioner": 518,
      "then": 519,
      "right": 520,
      "ision": 521,
      "demo": 522,
      "ives": 523,
      "ious": 524,
      "see": 525,
      "bud": 526,
      "sum": 527,
      "system": 528,
      "main": 529,
      "prote": 530,
      "add": 531,
      "ward": 532,
      "market": 533,
      "serv": 534,
      "against": 535,
      "meas": 536,
      "vent": 537,
      "itiz": 538,
      "app": 539,
      "citiz": 540,
      "vel": 541,
      "ite": 542,
      "even": 543,
      "tw": 544,
      "treat": 545,
      "uation": 546,
      "debate": 547,
      "want": 548,
      "bal": 549,
      "here": 550,
      "fer": 551,
      "question": 552,
      "well": 553,
      "abl": 554,
      "ving": 555,
      "ors": 556,
      "ram": 557,
      "think": 558,
      "incl": 559,
      "appro": 560,
      "effe": 561,
      "ken": 562,
      "regul": 563,
      "arge": 564,
      "ian": 565,
      "ep": 566,
      "incre": 567,
      "call": 568,
      "put": 569,
      "good": 570,
      "too": 571,
      "pet": 572,
      "program": 573,
      "agreement": 574,
      "long": 575,
      "vir": 576,
      "men": 577,
      "isl": 578,
      "pla": 579,
      "possible": 580,
      "adop": 581,
      "ised": 582,
      "ide": 583,
      "today": 584,
      "fra": 585,
      "plement": 586,
      "cept": 587,
      "ves": 588,
      "high": 589,
      "country": 590,
      "issue": 591,
      "every": 592,
      "far": 593,
      "inform": 594,
      "mit": 595,
      "citizens": 596,
      "community": 597,
      "resol": 598,
      "dra": 599,
      "years": 600,
      "two": 601,
      "does": 602,
      "level": 603,
      "fut": 604,
      "how": 605,
      "ism": 606,
      "own": 607,
      "future": 608,
      "operation": 609,
      "less": 610,
      "contin": 611,
      "el": 612,
      "situation": 613,
      "world": 614,
      "ready": 615,
      "tur": 616,
      "gent": 617,
      "onment": 618,
      "financial": 619,
      "ices": 620,
      "bility": 621,
      "uch": 622,
      "iven": 623,
      "qual": 624,
      "measures": 625,
      "exam": 626,
      "ric": 627,
      "cannot": 628,
      "imp": 629,
      "envir": 630,
      "ific": 631,
      "emplo": 632,
      "had": 633,
      "same": 634,
      "environment": 635,
      "vol": 636,
      "thr": 637,
      "could": 638,
      "budget": 639,
      "sol": 640,
      "certain": 641,
      "ory": 642,
      "set": 643,
      "ry": 644,
      "ext": 645,
      "through": 646,
      "lect": 647,
      "curren": 648,
      "des": 649,
      "international": 650,
      "requ": 651,
      "att": 652,
      "directive": 653,
      "art": 654,
      "may": 655,
      "legal": 656,
      "row": 657,
      "instit": 658,
      "said": 659,
      "much": 660,
      "pp": 661,
      "ire": 662,
      "last": 663,
      "ask": 664,
      "ider": 665,
      "gener": 666,
      "implement": 667,
      "vote": 668,
      "interest": 669,
      "within": 670,
      "common": 671,
      "mi": 672,
      "matter": 673,
      "compet": 674,
      "already": 675,
      "process": 676,
      "ict": 677,
      "isation": 678,
      "legisl": 679,
      "ak": 680,
      "your": 681,
      "llow": 682,
      "achi": 683,
      "ship": 684,
      "thor": 685,
      "cooperation": 686,
      "action": 687,
      "taken": 688,
      "org": 689,
      "employ": 690,
      "cts": 691,
      "both": 692,
      "mrs": 693,
      "members": 694,
      "government": 695,
      "still": 696,
      "ign": 697,
      "real": 698,
      "rapport": 699,
      "rapporteur": 700,
      "law": 701,
      "place": 702,
      "reas": 703,
      "ild": 704,
      "ban": 705,
      "discus": 706,
      "why": 707,
      "hope": 708,
      "ited": 709,
      "position": 710,
      "sect": 711,
      "consider": 712,
      "fur": 713,
      "sign": 714,
      "ual": 715,
      "ig": 716,
      "fr": 717,
      "utions": 718,
      "secur": 719,
      "car": 720,
      "course": 721,
      "strate": 722,
      "respect": 723,
      "ince": 724,
      "energy": 725,
      "necess": 726,
      "lad": 727,
      "hal": 728,
      "self": 729,
      "ensure": 730,
      "second": 731,
      "minis": 732,
      "inci": 733,
      "reason": 734,
      "col": 735,
      "ouse": 736,
      "author": 737,
      "thank": 738,
      "further": 739,
      "clo": 740,
      "area": 741,
      "princi": 742,
      "hel": 743,
      "security": 744,
      "reed": 745,
      "number": 746,
      "inv": 747,
      "fair": 748,
      "case": 749,
      "house": 750,
      "differen": 751,
      "ger": 752,
      "current": 753,
      "his": 754,
      "large": 755,
      "nal": 756,
      "struct": 757,
      "sing": 758,
      "crat": 759,
      "since": 760,
      "organ": 761,
      "aid": 762,
      "ph": 763,
      "tal": 764,
      "omen": 765,
      "health": 766,
      "ability": 767,
      "information": 768,
      "soci": 769,
      "ten": 770,
      "protection": 771,
      "itions": 772,
      "without": 773,
      "safe": 774,
      "ital": 775,
      "half": 776,
      "rul": 777,
      "pers": 778,
      "maj": 779,
      "region": 780,
      "includ": 781,
      "jo": 782,
      "major": 783,
      "speci": 784,
      "help": 785,
      "inde": 786,
      "ved": 787,
      "let": 788,
      "sur": 789,
      "initi": 790,
      "mad": 791,
      "wel": 792,
      "proced": 793,
      "represent": 794,
      "means": 795,
      "treaty": 796,
      "allow": 797,
      "indust": 798,
      "necessary": 799,
      "before": 800,
      "given": 801,
      "gentle": 802,
      "problem": 803,
      "decision": 804,
      "deal": 805,
      "consum": 806,
      "example": 807,
      "wer": 808,
      "amendments": 809,
      "peri": 810,
      "gentlemen": 811,
      "ladies": 812,
      "invol": 813,
      "after": 814,
      "tion": 815,
      "democrat": 816,
      "val": 817,
      "ning": 818,
      "follow": 819,
      "problems": 820,
      "pare": 821,
      "employment": 822,
      "itive": 823,
      "loc": 824,
      "fav": 825,
      "nego": 826,
      "negoti": 827,
      "text": 828,
      "pend": 829,
      "programme": 830,
      "rules": 831,
      "women": 832,
      "particularly": 833,
      "portun": 834,
      "opportun": 835,
      "redu": 836,
      "eng": 837,
      "ile": 838,
      "tech": 839,
      "establ": 840,
      "establish": 841,
      "resolution": 842,
      "fici": 843,
      "sed": 844,
      "trade": 845,
      "change": 846,
      "give": 847,
      "plan": 848,
      "cor": 849,
      "issues": 850,
      "ately": 851,
      "madam": 852,
      "pra": 853,
      "fish": 854,
      "used": 855,
      "united": 856,
      "acc": 857,
      "wish": 858,
      "lead": 859,
      "ential": 860,
      "tribut": 861,
      "frame": 862,
      "cap": 863,
      "presidency": 864,
      "ner": 865,
      "led": 866,
      "invest": 867,
      "areas": 868,
      "accept": 869,
      "ru": 870,
      "oc": 871,
      "cris": 872,
      "contro": 873,
      "open": 874,
      "ft": 875,
      "illion": 876,
      "regulation": 877,
      "conf": 878,
      "specific": 879,
      "framework": 880,
      "sector": 881,
      "key": 882,
      "arch": 883,
      "rit": 884,
      "nat": 885,
      "mee": 886,
      "loo": 887,
      "sm": 888,
      "whether": 889,
      "cing": 890,
      "diffic": 891,
      "difficult": 892,
      "thir": 893,
      "increas": 894,
      "sibility": 895,
      "ca": 896,
      "mone": 897,
      "dem": 898,
      "cra": 899,
      "uring": 900,
      "offic": 901,
      "ace": 902,
      "land": 903,
      "favour": 904,
      "direct": 905,
      "ater": 906,
      "opin": 907,
      "behalf": 908,
      "ways": 909,
      "services": 910,
      "ines": 911,
      "subject": 912,
      "ues": 913,
      "air": 914,
      "suc": 915,
      "ec": 916,
      "reform": 917,
      "concl": 918,
      "accoun": 919,
      "ss": 920,
      "result": 921,
      "isions": 922,
      "hand": 923,
      "role": 924,
      "progress": 925,
      "ents": 926,
      "expres": 927,
      "next": 928,
      "general": 929,
      "proposals": 930,
      "ps": 931,
      "contribut": 932,
      "agric": 933,
      "agricult": 934,
      "crit": 935,
      "provid": 936,
      "amendment": 937,
      "vention": 938,
      "elect": 939,
      "third": 940,
      "ources": 941,
      "effective": 942,
      "going": 943,
      "basis": 944,
      "serious": 945,
      "terms": 946,
      "fort": 947,
      "mor": 948,
      "grow": 949,
      "fully": 950,
      "pay": 951,
      "promo": 952,
      "nor": 953,
      "vis": 954,
      "ref": 955,
      "ied": 956,
      "pract": 957,
      "road": 958,
      "different": 959,
      "crisis": 960,
      "usion": 961,
      "prove": 962,
      "wards": 963,
      "iz": 964,
      "sch": 965,
      "gen": 966,
      "adopted": 967,
      "aim": 968,
      "ude": 969,
      "ention": 970,
      "ris": 971,
      "crim": 972,
      "reco": 973,
      "word": 974,
      "search": 975,
      "better": 976,
      "done": 977,
      "legislation": 978,
      "comple": 979,
      "quality": 980,
      "happ": 981,
      "transport": 982,
      "her": 983,
      "light": 984,
      "ben": 985,
      "prior": 986,
      "approach": 987,
      "av": 988,
      "find": 989,
      "cas": 990,
      "vers": 991,
      "back": 992,
      "needs": 993,
      "mention": 994,
      "institutions": 995,
      "kes": 996,
      "strategy": 997,
      "making": 998,
      "bu": 999,
      "gration": 1000,
      "recent": 1001,
      "ute": 1002,
      "reach": 1003,
      "mely": 1004,
      "step": 1005,
      "ail": 1006,
      "fundament": 1007,
      "glo": 1008,
      "working": 1009,
      "constit": 1010,
      "continue": 1011,
      "opinion": 1012,
      "person": 1013,
      "ination": 1014,
      "war": 1015,
      "whole": 1016,
      "mis": 1017,
      "research": 1018,
      "project": 1019,
      "freed": 1020,
      "free": 1021,
      "voted": 1022,
      "forward": 1023,
      "colle": 1024,
      "move": 1025,
      "selves": 1026,
      "aran": 1027,
      "three": 1028,
      "log": 1029,
      "freedom": 1030,
      "ference": 1031,
      "control": 1032,
      "play": 1033,
      "job": 1034,
      "cost": 1035,
      "force": 1036,
      "tax": 1037,
      "concerned": 1038,
      "vious": 1039,
      "ged": 1040,
      "taking": 1041,
      "improve": 1042,
      "na": 1043,
      "fundamental": 1044,
      "ought": 1045,
      "child": 1046,
      "another": 1047,
      "aw": 1048,
      "while": 1049,
      "guaran": 1050,
      "towards": 1051,
      "during": 1052,
      "down": 1053,
      "safety": 1054,
      "account": 1055,
      "ran": 1056,
      "tim": 1057,
      "ness": 1058,
      "cult": 1059,
      "few": 1060,
      "welcome": 1061,
      "exist": 1062,
      "pur": 1063,
      "small": 1064,
      "something": 1065,
      "global": 1066,
      "fac": 1067,
      "suf": 1068,
      "toge": 1069,
      "together": 1070,
      "bring": 1071,
      "ically": 1072,
      "bus": 1073,
      "var": 1074,
      "cracy": 1075,
      "conditions": 1076,
      "intro": 1077,
      "der": 1078,
      "ges": 1079,
      "simp": 1080,
      "introdu": 1081,
      "cially": 1082,
      "uc": 1083,
      "food": 1084,
      "minister": 1085,
      "achieve": 1086,
      "affair": 1087,
      "remain": 1088,
      "based": 1089,
      "industry": 1090,
      "bon": 1091,
      "pose": 1092,
      "ident": 1093,
      "principle": 1094,
      "access": 1095,
      "gue": 1096,
      "exp": 1097,
      "coming": 1098,
      "clearly": 1099,
      "resources": 1100,
      "line": 1101,
      "ints": 1102,
      "bar": 1103,
      "finally": 1104,
      "sho": 1105,
      "ily": 1106,
      "ists": 1107,
      "eld": 1108,
      "procedure": 1109,
      "including": 1110,
      "peace": 1111,
      "iness": 1112,
      "success": 1113,
      "les": 1114,
      "als": 1115,
      "socie": 1116,
      "liber": 1117,
      "understand": 1118,
      "standard": 1119,
      "shall": 1120,
      "har": 1121,
      "vide": 1122,
      "funds": 1123,
      "proposed": 1124,
      "did": 1125,
      "accord": 1126,
      "centr": 1127,
      "importance": 1128,
      "mind": 1129,
      "authorities": 1130,
      "once": 1131,
      "million": 1132,
      "sen": 1133,
      "opportunity": 1134,
      "affairs": 1135,
      "arity": 1136,
      "policies": 1137,
      "provide": 1138,
      "espe": 1139,
      "internal": 1140,
      "strong": 1141,
      "really": 1142,
      "especially": 1143,
      "yet": 1144,
      "coura": 1145,
      "increase": 1146,
      "stain": 1147,
      "lim": 1148,
      "quite": 1149,
      "products": 1150,
      "democratic": 1151,
      "net": 1152,
      "activ": 1153,
      "ually": 1154,
      "recogn": 1155,
      "medi": 1156,
      "environmental": 1157,
      "negotiations": 1158,
      "appropri": 1159,
      "lig": 1160,
      "ising": 1161,
      "atives": 1162,
      "rather": 1163,
      "greater": 1164,
      "gra": 1165,
      "responsibility": 1166,
      "ror": 1167,
      "stren": 1168,
      "viol": 1169,
      "sequ": 1170,
      "ussi": 1171,
      "look": 1172,
      "streng": 1173,
      "ficient": 1174,
      "democracy": 1175,
      "regions": 1176,
      "paren": 1177,
      "side": 1178,
      "business": 1179,
      "russi": 1180,
      "itself": 1181,
      "defin": 1182,
      "ants": 1183,
      "become": 1184,
      "term": 1185,
      "ivid": 1186,
      "adv": 1187,
      "power": 1188,
      "turn": 1189,
      "lid": 1190,
      "least": 1191,
      "vil": 1192,
      "object": 1193,
      "cted": 1194,
      "instru": 1195,
      "sto": 1196,
      "prevent": 1197,
      "prom": 1198,
      "addition": 1199,
      "solid": 1200,
      "inst": 1201,
      "aware": 1202,
      "benef": 1203,
      "off": 1204,
      "beg": 1205,
      "comb": 1206,
      "care": 1207,
      "extre": 1208,
      "indeed": 1209,
      "speak": 1210,
      "ven": 1211,
      "ross": 1212,
      "show": 1213,
      "artic": 1214,
      "achiev": 1215,
      "having": 1216,
      "essential": 1217,
      "require": 1218,
      "del": 1219,
      "ilit": 1220,
      "never": 1221,
      "growth": 1222,
      "dist": 1223,
      "society": 1224,
      "writ": 1225,
      "def": 1226,
      "positive": 1227,
      "always": 1228,
      "attention": 1229,
      "demand": 1230,
      "ear": 1231,
      "things": 1232,
      "each": 1233,
      "ences": 1234,
      "discussion": 1235,
      "implementation": 1236,
      "grat": 1237,
      "meeting": 1238,
      "compan": 1239,
      "pa": 1240,
      "interests": 1241,
      "anim": 1242,
      "single": 1243,
      "appe": 1244,
      "bod": 1245,
      "mes": 1246,
      "hold": 1247,
      "educ": 1248,
      "ech": 1249,
      "signific": 1250,
      "terror": 1251,
      "civil": 1252,
      "ances": 1253,
      "manage": 1254,
      "forts": 1255,
      "economy": 1256,
      "ified": 1257,
      "efforts": 1258,
      "fight": 1259,
      "various": 1260,
      "month": 1261,
      "head": 1262,
      "bour": 1263,
      "points": 1264,
      "ension": 1265,
      "although": 1266,
      "communic": 1267,
      "fl": 1268,
      "techno": 1269,
      "money": 1270,
      "ina": 1271,
      "lines": 1272,
      "relation": 1273,
      "short": 1274,
      "life": 1275,
      "cri": 1276,
      "cu": 1277,
      "den": 1278,
      "following": 1279,
      "regional": 1280,
      "court": 1281,
      "fail": 1282,
      "alo": 1283,
      "sustain": 1284,
      "strengthen": 1285,
      "aspect": 1286,
      "ages": 1287,
      "tem": 1288,
      "proper": 1289,
      "draw": 1290,
      "obje": 1291,
      "words": 1292,
      "comes": 1293,
      "foreign": 1294,
      "rece": 1295,
      "stat": 1296,
      "gest": 1297,
      "address": 1298,
      "expect": 1299,
      "creat": 1300,
      "et": 1301,
      "among": 1302,
      "dan": 1303,
      "office": 1304,
      "applic": 1305,
      "field": 1306,
      "ples": 1307,
      "ining": 1308,
      "transparen": 1309,
      "commend": 1310,
      "colleag": 1311,
      "utional": 1312,
      "competition": 1313,
      "children": 1314,
      "prof": 1315,
      "pass": 1316,
      "char": 1317,
      "sid": 1318,
      "inal": 1319,
      "full": 1320,
      "individ": 1321,
      "period": 1322,
      "lack": 1323,
      "ably": 1324,
      "wee": 1325,
      "proved": 1326,
      "times": 1327,
      "cal": 1328,
      "trad": 1329,
      "fortun": 1330,
      "consequ": 1331,
      "chall": 1332,
      "lis": 1333,
      "workers": 1334,
      "article": 1335,
      "concerns": 1336,
      "involved": 1337,
      "agreements": 1338,
      "objective": 1339,
      "companies": 1340,
      "ify": 1341,
      "feel": 1342,
      "alogue": 1343,
      "ging": 1344,
      "list": 1345,
      "tle": 1346,
      "justice": 1347,
      "seem": 1348,
      "joint": 1349,
      "pop": 1350,
      "cise": 1351,
      "oub": 1352,
      "mean": 1353,
      "happen": 1354,
      "close": 1355,
      "tary": 1356,
      "initiative": 1357,
      "programmes": 1358,
      "increasing": 1359,
      "objectives": 1360,
      "certainly": 1361,
      "east": 1362,
      "bil": 1363,
      "ics": 1364,
      "gratul": 1365,
      "individual": 1366,
      "congratul": 1367,
      "affe": 1368,
      "bur": 1369,
      "emphas": 1370,
      "ulation": 1371,
      "ele": 1372,
      "relations": 1373,
      "lies": 1374,
      "decisions": 1375,
      "encoura": 1376,
      "kind": 1377,
      "often": 1378,
      "majority": 1379,
      "requi": 1380,
      "fam": 1381,
      "non": 1382,
      "conclusion": 1383,
      "best": 1384,
      "experi": 1385,
      "enlarge": 1386,
      "avail": 1387,
      "party": 1388,
      "lisbon": 1389,
      "fisher": 1390,
      "solution": 1391,
      "agricultural": 1392,
      "risk": 1393,
      "standards": 1394,
      "sim": 1395,
      "ck": 1396,
      "found": 1397,
      "eas": 1398,
      "refer": 1399,
      "share": 1400,
      "coord": 1401,
      "cell": 1402,
      "ick": 1403,
      "ings": 1404,
      "effect": 1405,
      "ago": 1406,
      "production": 1407,
      "dat": 1408,
      "simply": 1409,
      "significant": 1410,
      "special": 1411,
      "questions": 1412,
      "dialogue": 1413,
      "ined": 1414,
      "farm": 1415,
      "convention": 1416,
      "groups": 1417,
      "turkey": 1418,
      "ises": 1419,
      "ither": 1420,
      "bel": 1421,
      "clar": 1422,
      "ended": 1423,
      "ceed": 1424,
      "called": 1425,
      "ko": 1426,
      "education": 1427,
      "cession": 1428,
      "gree": 1429,
      "assess": 1430,
      "idence": 1431,
      "build": 1432,
      "lan": 1433,
      "bi": 1434,
      "extremely": 1435,
      "enlargement": 1436,
      "appropriate": 1437,
      "cho": 1438,
      "mentioned": 1439,
      "begin": 1440,
      "itor": 1441,
      "assist": 1442,
      "agend": 1443,
      "subst": 1444,
      "ults": 1445,
      "complete": 1446,
      "concerning": 1447,
      "ible": 1448,
      "create": 1449,
      "limit": 1450,
      "particip": 1451,
      "recommend": 1452,
      "central": 1453,
      "posed": 1454,
      "docu": 1455,
      "jud": 1456,
      "rule": 1457,
      "clim": 1458,
      "haps": 1459,
      "perhaps": 1460,
      "others": 1461,
      "context": 1462,
      "gre": 1463,
      "ification": 1464,
      "hon": 1465,
      "guarantee": 1466,
      "responsible": 1467,
      "fle": 1468,
      "actually": 1469,
      "might": 1470,
      "developing": 1471,
      "climate": 1472,
      "ession": 1473,
      "management": 1474,
      "equ": 1475,
      "protect": 1476,
      "promise": 1477,
      "impact": 1478,
      "consumers": 1479,
      "currently": 1480,
      "adminis": 1481,
      "lab": 1482,
      "agenda": 1483,
      "russia": 1484,
      "unfortun": 1485,
      "available": 1486,
      "ot": 1487,
      "yes": 1488,
      "hes": 1489,
      "partner": 1490,
      "sug": 1491,
      "consumer": 1492,
      "keep": 1493,
      "start": 1494,
      "ight": 1495,
      "ensive": 1496,
      "dom": 1497,
      "jobs": 1498,
      "enter": 1499,
      "inno": 1500,
      "dam": 1501,
      "actions": 1502,
      "data": 1503,
      "administr": 1504,
      "ins": 1505,
      "results": 1506,
      "systems": 1507,
      "apply": 1508,
      "stability": 1509,
      "vict": 1510,
      "thus": 1511,
      "conference": 1512,
      "focus": 1513,
      "tail": 1514,
      "secondly": 1515,
      "pleas": 1516,
      "sw": 1517,
      "arian": 1518,
      "request": 1519,
      "ira": 1520,
      "abled": 1521,
      "four": 1522,
      "needed": 1523,
      "vision": 1524,
      "labour": 1525,
      "monitor": 1526,
      "ng": 1527,
      "summit": 1528,
      "doing": 1529,
      "cases": 1530,
      "months": 1531,
      "abo": 1532,
      "though": 1533,
      "regarding": 1534,
      "ending": 1535,
      "firstly": 1536,
      "deter": 1537,
      "por": 1538,
      "techn": 1539,
      "ys": 1540,
      "conflic": 1541,
      "lt": 1542,
      "themselves": 1543,
      "matters": 1544,
      "rele": 1545,
      "independ": 1546,
      "dut": 1547,
      "amer": 1548,
      "writing": 1549,
      "solidarity": 1550,
      "liberal": 1551,
      "strict": 1552,
      "cies": 1553,
      "firm": 1554,
      "him": 1555,
      "amoun": 1556,
      "ga": 1557,
      "immi": 1558,
      "acceptable": 1559,
      "principles": 1560,
      "ians": 1561,
      "reasons": 1562,
      "she": 1563,
      "final": 1564,
      "enough": 1565,
      "mom": 1566,
      "contain": 1567,
      "orig": 1568,
      "hist": 1569,
      "ground": 1570,
      "ret": 1571,
      "due": 1572,
      "parties": 1573,
      "cru": 1574,
      "according": 1575,
      "above": 1576,
      "projects": 1577,
      "excell": 1578,
      "broad": 1579,
      "compromise": 1580,
      "uk": 1581,
      "pot": 1582,
      "sever": 1583,
      "sustainable": 1584,
      "regards": 1585,
      "cut": 1586,
      "local": 1587,
      "legislative": 1588,
      "reports": 1589,
      "funding": 1590,
      "unt": 1591,
      "demon": 1592,
      "governments": 1593,
      "using": 1594,
      "americ": 1595,
      "cla": 1596,
      "pat": 1597,
      "longer": 1598,
      "priv": 1599,
      "afric": 1600,
      "iveness": 1601,
      "ently": 1602,
      "draft": 1603,
      "priority": 1604,
      "structural": 1605,
      "costs": 1606,
      "unfortunately": 1607,
      "doub": 1608,
      "maintain": 1609,
      "sou": 1610,
      "nothing": 1611,
      "active": 1612,
      "ling": 1613,
      "entire": 1614,
      "achieved": 1615,
      "border": 1616,
      "activities": 1617,
      "past": 1618,
      "pal": 1619,
      "service": 1620,
      "plac": 1621,
      "logy": 1622,
      "threat": 1623,
      "prepare": 1624,
      "commitment": 1625,
      "atory": 1626,
      "exter": 1627,
      "ctions": 1628,
      "theless": 1629,
      "cohes": 1630,
      "sco": 1631,
      "markets": 1632,
      "true": 1633,
      "uni": 1634,
      "ever": 1635,
      "ried": 1636,
      "integration": 1637,
      "idea": 1638,
      "investment": 1639,
      "constru": 1640,
      "moment": 1641,
      "criter": 1642,
      "changes": 1643,
      "accession": 1644,
      "structure": 1645,
      "seen": 1646,
      "young": 1647,
      "little": 1648,
      "stud": 1649,
      "promote": 1650,
      "wers": 1651,
      "stress": 1652,
      "logical": 1653,
      "obvious": 1654,
      "iter": 1655,
      "provided": 1656,
      "several": 1657,
      "nuclear": 1658,
      "express": 1659,
      "amb": 1660,
      "benefit": 1661,
      "mal": 1662,
      "agriculture": 1663,
      "external": 1664,
      "pack": 1665,
      "lat": 1666,
      "sat": 1667,
      "cohesion": 1668,
      "body": 1669,
      "excellent": 1670,
      "communication": 1671,
      "congratulate": 1672,
      "ided": 1673,
      "discrim": 1674,
      "transparency": 1675,
      "tern": 1676,
      "budgetary": 1677,
      "nations": 1678,
      "aged": 1679,
      "consu": 1680,
      "sci": 1681,
      "industri": 1682,
      "include": 1683,
      "fisheries": 1684,
      "organis": 1685,
      "item": 1686,
      "innov": 1687,
      "subsid": 1688,
      "utes": 1689,
      "agreed": 1690,
      "indic": 1691,
      "aspects": 1692,
      "respond": 1693,
      "previous": 1694,
      "depend": 1695,
      "link": 1696,
      "meth": 1697,
      "wa": 1698,
      "lied": 1699,
      "tomor": 1700,
      "tomorrow": 1701,
      "milit": 1702,
      "pover": 1703,
      "detail": 1704,
      "sha": 1705,
      "supp": 1706,
      "everyone": 1707,
      "hard": 1708,
      "hear": 1709,
      "equal": 1710,
      "post": 1711,
      "makes": 1712,
      "absol": 1713,
      "cir": 1714,
      "dest": 1715,
      "network": 1716,
      "mark": 1717,
      "soon": 1718,
      "technical": 1719,
      "avo": 1720,
      "dit": 1721,
      "desp": 1722,
      "live": 1723,
      "cand": 1724,
      "absolute": 1725,
      "conne": 1726,
      "population": 1727,
      "sufficient": 1728,
      "until": 1729,
      "ators": 1730,
      "terrorism": 1731,
      "water": 1732,
      "upon": 1733,
      "ned": 1734,
      "mer": 1735,
      "ims": 1736,
      "response": 1737,
      "associ": 1738,
      "rable": 1739,
      "contribution": 1740,
      "continu": 1741,
      "poverty": 1742,
      "integr": 1743,
      "voting": 1744,
      "answer": 1745,
      "ead": 1746,
      "old": 1747,
      "cep": 1748,
      "harmon": 1749,
      "iving": 1750,
      "imum": 1751,
      "anti": 1752,
      "satis": 1753,
      "values": 1754,
      "ath": 1755,
      "bank": 1756,
      "criteria": 1757,
      "existing": 1758,
      "practice": 1759,
      "excl": 1760,
      "review": 1761,
      "regulations": 1762,
      "ledge": 1763,
      "balance": 1764,
      "ster": 1765,
      "mechan": 1766,
      "colleagues": 1767,
      "cultural": 1768,
      "corre": 1769,
      "determin": 1770,
      "partnership": 1771,
      "assistance": 1772,
      "provisions": 1773,
      "held": 1774,
      "procedures": 1775,
      "fall": 1776,
      "reject": 1777,
      "precise": 1778,
      "appear": 1779,
      "brit": 1780,
      "elections": 1781,
      "despite": 1782,
      "seems": 1783,
      "method": 1784,
      "institutional": 1785,
      "violence": 1786,
      "ade": 1787,
      "pleased": 1788,
      "creation": 1789,
      "week": 1790,
      "suggest": 1791,
      "china": 1792,
      "training": 1793,
      "flex": 1794,
      "tell": 1795,
      "green": 1796,
      "face": 1797,
      "isra": 1798,
      "anced": 1799,
      "cam": 1800,
      "everything": 1801,
      "statement": 1802,
      "rep": 1803,
      "along": 1804,
      "left": 1805,
      "grant": 1806,
      "strateg": 1807,
      "adopt": 1808,
      "sense": 1809,
      "star": 1810,
      "bly": 1811,
      "san": 1812,
      "traf": 1813,
      "military": 1814,
      "sk": 1815,
      "ton": 1816,
      "ourselves": 1817,
      "traffic": 1818,
      "ived": 1819,
      "crucial": 1820,
      "wast": 1821,
      "jun": 1822,
      "quick": 1823,
      "lea": 1824,
      "tes": 1825,
      "pap": 1826,
      "basic": 1827,
      "infl": 1828,
      "fun": 1829,
      "monetary": 1830,
      "stage": 1831,
      "ourable": 1832,
      "opportunities": 1833,
      "advant": 1834,
      "langu": 1835,
      "repe": 1836,
      "relating": 1837,
      "parliamentary": 1838,
      "ared": 1839,
      "carried": 1840,
      "increased": 1841,
      "talk": 1842,
      "emission": 1843,
      "saying": 1844,
      "asked": 1845,
      "tabled": 1846,
      "farmers": 1847,
      "fishing": 1848,
      "oblig": 1849,
      "organisations": 1850,
      "consequences": 1851,
      "ners": 1852,
      "application": 1853,
      "instead": 1854,
      "fron": 1855,
      "ann": 1856,
      "challeng": 1857,
      "super": 1858,
      "orders": 1859,
      "value": 1860,
      "home": 1861,
      "range": 1862,
      "ends": 1863,
      "pective": 1864,
      "throughout": 1865,
      "wide": 1866,
      "reduce": 1867,
      "table": 1868,
      "uses": 1869,
      "minor": 1870,
      "requirements": 1871,
      "guard": 1872,
      "instrument": 1873,
      "instruments": 1874,
      "carry": 1875,
      "mid": 1876,
      "avoid": 1877,
      "danger": 1878,
      "territ": 1879,
      "five": 1880,
      "ator": 1881,
      "monitoring": 1882,
      "namely": 1883,
      "required": 1884,
      "ler": 1885,
      "urgent": 1886,
      "either": 1887,
      "uary": 1888,
      "circ": 1889,
      "presented": 1890,
      "nature": 1891,
      "ison": 1892,
      "attem": 1893,
      "offer": 1894,
      "anal": 1895,
      "sels": 1896,
      "rely": 1897,
      "six": 1898,
      "tees": 1899,
      "takes": 1900,
      "meet": 1901,
      "closed": 1902,
      "outs": 1903,
      "immedi": 1904,
      "speech": 1905,
      "pen": 1906,
      "thanks": 1907,
      "capital": 1908,
      "istic": 1909,
      "constitution": 1910,
      "contra": 1911,
      "around": 1912,
      "ports": 1913,
      "priorities": 1914,
      "model": 1915,
      "initiatives": 1916,
      "emer": 1917,
      "movement": 1918,
      "vital": 1919,
      "prepared": 1920,
      "itarian": 1921,
      "pursu": 1922,
      "top": 1923,
      "dri": 1924,
      "accep": 1925,
      "ond": 1926,
      "doubt": 1927,
      "prepar": 1928,
      "reached": 1929,
      "rench": 1930,
      "regret": 1931,
      "neigh": 1932,
      "neighbour": 1933,
      "uly": 1934,
      "siz": 1935,
      "guide": 1936,
      "hind": 1937,
      "lish": 1938,
      "furthermore": 1939,
      "lling": 1940,
      "tar": 1941,
      "decided": 1942,
      "defence": 1943,
      "conflict": 1944,
      "lot": 1945,
      "sec": 1946,
      "run": 1947,
      "scient": 1948,
      "bre": 1949,
      "powers": 1950,
      "consist": 1951,
      "package": 1952,
      "reading": 1953,
      "annu": 1954,
      "criminal": 1955,
      "ibility": 1956,
      "amount": 1957,
      "culture": 1958,
      "ones": 1959,
      "established": 1960,
      "task": 1961,
      "mitted": 1962,
      "motion": 1963,
      "relev": 1964,
      "private": 1965,
      "potential": 1966,
      "across": 1967,
      "document": 1968,
      "ateral": 1969,
      "experience": 1970,
      "encourage": 1971,
      "recently": 1972,
      "enable": 1973,
      "lear": 1974,
      "french": 1975,
      "bear": 1976,
      "discrimination": 1977,
      "competit": 1978,
      "illegal": 1979,
      "borders": 1980,
      "demonstr": 1981,
      "mess": 1982,
      "efficient": 1983,
      "remind": 1984,
      "proving": 1985,
      "os": 1986,
      "pressure": 1987,
      "bit": 1988,
      "levels": 1989,
      "raised": 1990,
      "expressed": 1991,
      "conv": 1992,
      "parag": 1993,
      "crime": 1994,
      "wise": 1995,
      "ensu": 1996,
      "death": 1997,
      "talking": 1998,
      "capac": 1999,
      "mission": 2000,
      "implemented": 2001,
      "critic": 2002,
      "challenges": 2003,
      "waste": 2004,
      "rural": 2005,
      "genu": 2006,
      "rat": 2007,
      "effort": 2008,
      "organisation": 2009,
      "genuine": 2010,
      "direction": 2011,
      "nevertheless": 2012,
      "raph": 2013,
      "immigration": 2014,
      "medium": 2015,
      "whose": 2016,
      "technology": 2017,
      "fellow": 2018,
      "paragraph": 2019,
      "involve": 2020,
      "palest": 2021,
      "republic": 2022,
      "dece": 2023,
      "ministers": 2024,
      "victims": 2025,
      "enterpr": 2026,
      "pointed": 2027,
      "ties": 2028,
      "effects": 2029,
      "moder": 2030,
      "cross": 2031,
      "included": 2032,
      "suring": 2033,
      "reflect": 2034,
      "ption": 2035,
      "correct": 2036,
      "encies": 2037,
      "sent": 2038,
      "quickly": 2039,
      "billion": 2040,
      "partners": 2041,
      "tour": 2042,
      "renew": 2043,
      "rate": 2044,
      "absolutely": 2045,
      "deleg": 2046,
      "note": 2047,
      "itional": 2048,
      "annual": 2049,
      "reduction": 2050,
      "official": 2051,
      "sup": 2052,
      "irel": 2053,
      "ireland": 2054,
      "ilar": 2055,
      "lar": 2056,
      "return": 2057,
      "sea": 2058,
      "took": 2059,
      "ters": 2060,
      "bilities": 2061,
      "supported": 2062,
      "exer": 2063,
      "agency": 2064,
      "disast": 2065,
      "industrial": 2066,
      "additional": 2067,
      "minutes": 2068,
      "sectors": 2069,
      "candid": 2070,
      "ean": 2071,
      "liance": 2072,
      "hun": 2073,
      "jan": 2074,
      "reality": 2075,
      "france": 2076,
      "sibilities": 2077,
      "divers": 2078,
      "condu": 2079,
      "outside": 2080,
      "south": 2081,
      "date": 2082,
      "eth": 2083,
      "swed": 2084,
      "event": 2085,
      "emissions": 2086,
      "coordination": 2087,
      "authority": 2088,
      "giving": 2089,
      "almost": 2090,
      "ying": 2091,
      "unemployment": 2092,
      "eli": 2093,
      "completely": 2094,
      "mot": 2095,
      "moreover": 2096,
      "flo": 2097,
      "representatives": 2098,
      "businesses": 2099,
      "reforms": 2100,
      "gas": 2101,
      "relevant": 2102,
      "except": 2103,
      "similar": 2104,
      "explo": 2105,
      "big": 2106,
      "paper": 2107,
      "price": 2108,
      "asy": 2109,
      "preh": 2110,
      "rec": 2111,
      "total": 2112,
      "declar": 2113,
      "brought": 2114,
      "cro": 2115,
      "cover": 2116,
      "rap": 2117,
      "mand": 2118,
      "test": 2119,
      "confidence": 2120,
      "ensuring": 2121,
      "assessment": 2122,
      "creating": 2123,
      "gal": 2124,
      "dim": 2125,
      "natural": 2126,
      "africa": 2127,
      "consult": 2128,
      "mediter": 2129,
      "competitiveness": 2130,
      "fri": 2131,
      "approved": 2132,
      "mediterran": 2133,
      "possibility": 2134,
      "mediterranean": 2135,
      "origin": 2136,
      "highlight": 2137,
      "poll": 2138,
      "developed": 2139,
      "extent": 2140,
      "inking": 2141,
      "rail": 2142,
      "days": 2143,
      "ficiency": 2144,
      "aking": 2145,
      "december": 2146,
      "wr": 2147,
      "function": 2148,
      "rug": 2149,
      "applied": 2150,
      "ons": 2151,
      "prices": 2152,
      "treatment": 2153,
      "ands": 2154,
      "aust": 2155,
      "heard": 2156,
      "lives": 2157,
      "circum": 2158,
      "design": 2159,
      "living": 2160,
      "tack": 2161,
      "eval": 2162,
      "received": 2163,
      "discussions": 2164,
      "discussed": 2165,
      "democrats": 2166,
      "dict": 2167,
      "behind": 2168,
      "lum": 2169,
      "pi": 2170,
      "attack": 2171,
      "product": 2172,
      "neg": 2173,
      "away": 2174,
      "portu": 2175,
      "iting": 2176,
      "capacity": 2177,
      "else": 2178,
      "personal": 2179,
      "adoption": 2180,
      "guidelines": 2181,
      "arily": 2182,
      "drug": 2183,
      "restrict": 2184,
      "chr": 2185,
      "practical": 2186,
      "mater": 2187,
      "press": 2188,
      "istan": 2189,
      "infra": 2190,
      "provision": 2191,
      "met": 2192,
      "discuss": 2193,
      "influ": 2194,
      "ously": 2195,
      "events": 2196,
      "session": 2197,
      "iraq": 2198,
      "sal": 2199,
      "targe": 2200,
      "compreh": 2201,
      "cide": 2202,
      "obviously": 2203,
      "conside": 2204,
      "considered": 2205,
      "uge": 2206,
      "bri": 2207,
      "knowledge": 2208,
      "remains": 2209,
      "sitting": 2210,
      "media": 2211,
      "measure": 2212,
      "scientific": 2213,
      "argu": 2214,
      "refuge": 2215,
      "unacceptable": 2216,
      "building": 2217,
      "rup": 2218,
      "thern": 2219,
      "british": 2220,
      "scope": 2221,
      "gets": 2222,
      "content": 2223,
      "forces": 2224,
      "goods": 2225,
      "stop": 2226,
      "via": 2227,
      "innovation": 2228,
      "honourable": 2229,
      "known": 2230,
      "efficiency": 2231,
      "precisely": 2232,
      "worth": 2233,
      "uel": 2234,
      "delay": 2235,
      "connection": 2236,
      "solutions": 2237,
      "ium": 2238,
      "roman": 2239,
      "huge": 2240,
      "humanitarian": 2241,
      "mac": 2242,
      "oil": 2243,
      "affected": 2244,
      "effectively": 2245,
      "proceed": 2246,
      "corpor": 2247,
      "ier": 2248,
      "family": 2249,
      "directly": 2250,
      "spir": 2251,
      "round": 2252,
      "reser": 2253,
      "combat": 2254,
      "asylum": 2255,
      "forms": 2256,
      "bey": 2257,
      "coordin": 2258,
      "commer": 2259,
      "unch": 2260,
      "supply": 2261,
      "reference": 2262,
      "independent": 2263,
      "counter": 2264,
      "tele": 2265,
      "spo": 2266,
      "circumst": 2267,
      "const": 2268,
      "safeguard": 2269,
      "improving": 2270,
      "quate": 2271,
      "calls": 2272,
      "israel": 2273,
      "expla": 2274,
      "administrative": 2275,
      "aimed": 2276,
      "difficulties": 2277,
      "conclusions": 2278,
      "condem": 2279,
      "penal": 2280,
      "inc": 2281,
      "mult": 2282,
      "obtain": 2283,
      "pension": 2284,
      "acy": 2285,
      "modern": 2286,
      "trying": 2287,
      "contribute": 2288,
      "equality": 2289,
      "chair": 2290,
      "bul": 2291,
      "investig": 2292,
      "occas": 2293,
      "june": 2294,
      "graph": 2295,
      "bourg": 2296,
      "enterprises": 2297,
      "shown": 2298,
      "overall": 2299,
      "christ": 2300,
      "custo": 2301,
      "related": 2302,
      "circumstances": 2303,
      "providing": 2304,
      "suffer": 2305,
      "committed": 2306,
      "accordance": 2307,
      "message": 2308,
      "beginning": 2309,
      "governmental": 2310,
      "fil": 2311,
      "univers": 2312,
      "ization": 2313,
      "mut": 2314,
      "specifically": 2315,
      "status": 2316,
      "financing": 2317,
      "goes": 2318,
      "successful": 2319,
      "alloc": 2320,
      "palestin": 2321,
      "ribut": 2322,
      "voc": 2323,
      "vere": 2324,
      "koso": 2325,
      "regi": 2326,
      "enge": 2327,
      "considerable": 2328,
      "consideration": 2329,
      "challenge": 2330,
      "promoting": 2331,
      "minimum": 2332,
      "bure": 2333,
      "poor": 2334,
      "charge": 2335,
      "provides": 2336,
      "strategic": 2337,
      "looking": 2338,
      "allowed": 2339,
      "yester": 2340,
      "implementing": 2341,
      "bureau": 2342,
      "yesterday": 2343,
      "duty": 2344,
      "participation": 2345,
      "mass": 2346,
      "comments": 2347,
      "regime": 2348,
      "created": 2349,
      "propose": 2350,
      "purpose": 2351,
      "cat": 2352,
      "germany": 2353,
      "secre": 2354,
      "abil": 2355,
      "rightly": 2356,
      "wrong": 2357,
      "beyond": 2358,
      "famil": 2359,
      "convin": 2360,
      "exper": 2361,
      "prim": 2362,
      "profession": 2363,
      "antic": 2364,
      "sens": 2365,
      "steps": 2366,
      "setting": 2367,
      "benefits": 2368,
      "accepted": 2369,
      "grants": 2370,
      "wanted": 2371,
      "speaking": 2372,
      "views": 2373,
      "ussels": 2374,
      "wto": 2375,
      "ash": 2376,
      "brussels": 2377,
      "diversity": 2378,
      "introduction": 2379,
      "itim": 2380,
      "company": 2381,
      "history": 2382,
      "operate": 2383,
      "aff": 2384,
      "ern": 2385,
      "nam": 2386,
      "stated": 2387,
      "german": 2388,
      "legitim": 2389,
      "observ": 2390,
      "gain": 2391,
      "relig": 2392,
      "asse": 2393,
      "seek": 2394,
      "forced": 2395,
      "decl": 2396,
      "constitutional": 2397,
      "plans": 2398,
      "dle": 2399,
      "paid": 2400,
      "material": 2401,
      "ours": 2402,
      "came": 2403,
      "board": 2404,
      "analys": 2405,
      "tourism": 2406,
      "dealing": 2407,
      "closely": 2408,
      "concil": 2409,
      "oral": 2410,
      "referred": 2411,
      "police": 2412,
      "ides": 2413,
      "seriously": 2414,
      "lier": 2415,
      "construction": 2416,
      "expend": 2417,
      "iture": 2418,
      "relationship": 2419,
      "simpli": 2420,
      "separ": 2421,
      "eastern": 2422,
      "fear": 2423,
      "charter": 2424,
      "trust": 2425,
      "rapid": 2426,
      "kosovo": 2427,
      "exchange": 2428,
      "limited": 2429,
      "receive": 2430,
      "bl": 2431,
      "activity": 2432,
      "animal": 2433,
      "pact": 2434,
      "ender": 2435,
      "balanced": 2436,
      "colleague": 2437,
      "mill": 2438,
      "stri": 2439,
      "gency": 2440,
      "former": 2441,
      "decide": 2442,
      "thous": 2443,
      "gar": 2444,
      "establishing": 2445,
      "placed": 2446,
      "cham": 2447,
      "satisfact": 2448,
      "itude": 2449,
      "commitments": 2450,
      "bio": 2451,
      "itious": 2452,
      "competitive": 2453,
      "drawn": 2454,
      "prime": 2455,
      "dimension": 2456,
      "requires": 2457,
      "launch": 2458,
      "type": 2459,
      "representative": 2460,
      "bodies": 2461,
      "spect": 2462,
      "regular": 2463,
      "produce": 2464,
      "isms": 2465,
      "eder": 2466,
      "prison": 2467,
      "europeans": 2468,
      "gos": 2469,
      "ping": 2470,
      "intended": 2471,
      "preci": 2472,
      "budgets": 2473,
      "extra": 2474,
      "expenditure": 2475,
      "orm": 2476,
      "exact": 2477,
      "ked": 2478,
      "brief": 2479,
      "sometimes": 2480,
      "sized": 2481,
      "concentr": 2482,
      "adap": 2483,
      "ening": 2484,
      "calling": 2485,
      "risks": 2486,
      "perspective": 2487,
      "irish": 2488,
      "facilit": 2489,
      "campa": 2490,
      "campaign": 2491,
      "supporting": 2492,
      "ming": 2493,
      "gor": 2494,
      "anything": 2495,
      "january": 2496,
      "cale": 2497,
      "myself": 2498,
      "tic": 2499,
      "export": 2500,
      "concept": 2501,
      "internet": 2502,
      "speed": 2503,
      "march": 2504,
      "prevention": 2505,
      "distribut": 2506,
      "mil": 2507,
      "demands": 2508,
      "middle": 2509,
      "comment": 2510,
      "leave": 2511,
      "greece": 2512,
      "iation": 2513,
      "highly": 2514,
      "useful": 2515,
      "properly": 2516,
      "judic": 2517,
      "combating": 2518,
      "willing": 2519,
      "strengthening": 2520,
      "ukra": 2521,
      "van": 2522,
      "chance": 2523,
      "deep": 2524,
      "higher": 2525,
      "none": 2526,
      "dum": 2527,
      "sort": 2528,
      "staff": 2529,
      "parts": 2530,
      "remo": 2531,
      "alone": 2532,
      "developments": 2533,
      "ambitious": 2534,
      "heren": 2535,
      "fraud": 2536,
      "wat": 2537,
      "portion": 2538,
      "iran": 2539,
      "nation": 2540,
      "affect": 2541,
      "citizen": 2542,
      "join": 2543,
      "weeks": 2544,
      "remember": 2545,
      "north": 2546,
      "credi": 2547,
      "referen": 2548,
      "histor": 2549,
      "interpre": 2550,
      "uded": 2551,
      "cers": 2552,
      "won": 2553,
      "produced": 2554,
      "reducing": 2555,
      "infrastructure": 2556,
      "improved": 2557,
      "conclude": 2558,
      "early": 2559,
      "complex": 2560,
      "bia": 2561,
      "austri": 2562,
      "span": 2563,
      "achieving": 2564,
      "increasingly": 2565,
      "caused": 2566,
      "ese": 2567,
      "comprehensive": 2568,
      "prob": 2569,
      "ols": 2570,
      "unanim": 2571,
      "slo": 2572,
      "shows": 2573,
      "candidate": 2574,
      "discussing": 2575,
      "rein": 2576,
      "statements": 2577,
      "documents": 2578,
      "scale": 2579,
      "urally": 2580,
      "whom": 2581,
      "audit": 2582,
      "compens": 2583,
      "study": 2584,
      "spirit": 2585,
      "hic": 2586,
      "gives": 2587,
      "tex": 2588,
      "emphasise": 2589,
      "represents": 2590,
      "animals": 2591,
      "acqu": 2592,
      "later": 2593,
      "contr": 2594,
      "aims": 2595,
      "forget": 2596,
      "deser": 2597,
      "ize": 2598,
      "bad": 2599,
      "language": 2600,
      "chec": 2601,
      "delegation": 2602,
      "serve": 2603,
      "consensu": 2604,
      "draf": 2605,
      "inary": 2606,
      "critical": 2607,
      "contrary": 2608,
      "opposition": 2609,
      "transfer": 2610,
      "producers": 2611,
      "thought": 2612,
      "earlier": 2613,
      "vehic": 2614,
      "descri": 2615,
      "aut": 2616,
      "enh": 2617,
      "dep": 2618,
      "pression": 2619,
      "leading": 2620,
      "boo": 2621,
      "indi": 2622,
      "acknow": 2623,
      "happened": 2624,
      "imately": 2625,
      "thinking": 2626,
      "manner": 2627,
      "convinced": 2628,
      "ii": 2629,
      "crete": 2630,
      "substant": 2631,
      "ring": 2632,
      "introduce": 2633,
      "name": 2634,
      "cast": 2635,
      "atic": 2636,
      "quo": 2637,
      "responsibilities": 2638,
      "currency": 2639,
      "sym": 2640,
      "enorm": 2641,
      "scho": 2642,
      "cup": 2643,
      "lu": 2644,
      "structures": 2645,
      "urge": 2646,
      "pte": 2647,
      "directives": 2648,
      "american": 2649,
      "introduced": 2650,
      "recognition": 2651,
      "laws": 2652,
      "opening": 2653,
      "commercial": 2654,
      "advantage": 2655,
      "outcome": 2656,
      "coll": 2657,
      "administration": 2658,
      "flexibility": 2659,
      "concrete": 2660,
      "ized": 2661,
      "bed": 2662,
      "declaration": 2663,
      "vered": 2664,
      "added": 2665,
      "consensus": 2666,
      "analysis": 2667,
      "itable": 2668,
      "sex": 2669,
      "wants": 2670,
      "conciliation": 2671,
      "rapporteurs": 2672,
      "damage": 2673,
      "establishment": 2674,
      "thirdly": 2675,
      "appreci": 2676,
      "poses": 2677,
      "italy": 2678,
      "succeed": 2679,
      "constructive": 2680,
      "uations": 2681,
      "signed": 2682,
      "rise": 2683,
      "otherwise": 2684,
      "says": 2685,
      "understanding": 2686,
      "fied": 2687,
      "elements": 2688,
      "altern": 2689,
      "spanish": 2690,
      "proportion": 2691,
      "nos": 2692,
      "path": 2693,
      "arrange": 2694,
      "facing": 2695,
      "logies": 2696,
      "recognise": 2697,
      "sound": 2698,
      "ished": 2699,
      "constant": 2700,
      "loss": 2701,
      "secure": 2702,
      "matic": 2703,
      "wes": 2704,
      "influence": 2705,
      "fered": 2706,
      "medic": 2707,
      "networks": 2708,
      "dio": 2709,
      "septe": 2710,
      "september": 2711,
      "treaties": 2712,
      "differences": 2713,
      "closer": 2714,
      "dead": 2715,
      "leader": 2716,
      "negative": 2717,
      "recommendations": 2718,
      "ource": 2719,
      "ened": 2720,
      "happy": 2721,
      "becoming": 2722,
      "naturally": 2723,
      "transparent": 2724,
      "ze": 2725,
      "entirely": 2726,
      "fif": 2727,
      "ib": 2728,
      "alternative": 2729,
      "reduced": 2730,
      "rates": 2731,
      "intel": 2732,
      "growing": 2733,
      "che": 2734,
      "hung": 2735,
      "refugees": 2736,
      "announ": 2737,
      "sources": 2738,
      "proto": 2739,
      "integrated": 2740,
      "weak": 2741,
      "record": 2742,
      "tun": 2743,
      "liberalisation": 2744,
      "susp": 2745,
      "aging": 2746,
      "asking": 2747,
      "mechanism": 2748,
      "informed": 2749,
      "conver": 2750,
      "approv": 2751,
      "bro": 2752,
      "nel": 2753,
      "bac": 2754,
      "hor": 2755,
      "istics": 2756,
      "globalisation": 2757,
      "governance": 2758,
      "dangerous": 2759,
      "jour": 2760,
      "bloc": 2761,
      "estic": 2762,
      "conduct": 2763,
      "nic": 2764,
      "chamber": 2765,
      "spain": 2766,
      "protocol": 2767,
      "probably": 2768,
      "turk": 2769,
      "romania": 2770,
      "hop": 2771,
      "que": 2772,
      "raise": 2773,
      "incorpor": 2774,
      "intervention": 2775,
      "weap": 2776,
      "methods": 2777,
      "pread": 2778,
      "exactly": 2779,
      "lled": 2780,
      "acter": 2781,
      "marks": 2782,
      "ease": 2783,
      "lay": 2784,
      "failure": 2785,
      "mul": 2786,
      "surance": 2787,
      "morning": 2788,
      "manu": 2789,
      "regis": 2790,
      "standing": 2791,
      "manufact": 2792,
      "sanctions": 2793,
      "practices": 2794,
      "western": 2795,
      "finance": 2796,
      "applies": 2797,
      "organised": 2798,
      "nove": 2799,
      "covered": 2800,
      "credit": 2801,
      "institution": 2802,
      "november": 2803,
      "parliaments": 2804,
      "conta": 2805,
      "strongly": 2806,
      "burden": 2807,
      "got": 2808,
      "subsidi": 2809,
      "ideas": 2810,
      "friend": 2811,
      "laid": 2812,
      "ially": 2813,
      "exception": 2814,
      "intergovernmental": 2815,
      "palestinian": 2816,
      "putting": 2817,
      "defend": 2818,
      "claim": 2819,
      "submitted": 2820,
      "occup": 2821,
      "improvement": 2822,
      "written": 2823,
      "card": 2824,
      "idents": 2825,
      "mutual": 2826,
      "intention": 2827,
      "obligations": 2828,
      "reply": 2829,
      "bra": 2830,
      "elected": 2831,
      "belg": 2832,
      "america": 2833,
      "excess": 2834,
      "ukraine": 2835,
      "ahead": 2836,
      "persons": 2837,
      "agencies": 2838,
      "attempt": 2839,
      "enormous": 2840,
      "gender": 2841,
      "ilst": 2842,
      "sensitive": 2843,
      "targets": 2844,
      "whilst": 2845,
      "fect": 2846,
      "dealt": 2847,
      "positions": 2848,
      "heart": 2849,
      "territor": 2850,
      "lands": 2851,
      "character": 2852,
      "cate": 2853,
      "occur": 2854,
      "meps": 2855,
      "front": 2856,
      "fis": 2857,
      "tober": 2858,
      "october": 2859,
      "managed": 2860,
      "feder": 2861,
      "definition": 2862,
      "immediately": 2863,
      "communities": 2864,
      "appeal": 2865,
      "recommendation": 2866,
      "mechanisms": 2867,
      "association": 2868,
      "gg": 2869,
      "independence": 2870,
      "expression": 2871,
      "mun": 2872,
      "russian": 2873,
      "explan": 2874,
      "ste": 2875,
      "kingdom": 2876,
      "reli": 2877,
      "eco": 2878,
      "hy": 2879,
      "appoint": 2880,
      "near": 2881,
      "faced": 2882,
      "ries": 2883,
      "easy": 2884,
      "addressed": 2885,
      "resolutions": 2886,
      "contains": 2887,
      "italian": 2888,
      "cul": 2889,
      "unable": 2890,
      "ake": 2891,
      "mandate": 2892,
      "consultation": 2893,
      "itation": 2894,
      "changed": 2895,
      "choice": 2896,
      "approval": 2897,
      "multi": 2898,
      "coheren": 2899,
      "ury": 2900,
      "stric": 2901,
      "politic": 2902,
      "christian": 2903,
      "debates": 2904,
      "mainly": 2905,
      "technologies": 2906,
      "membership": 2907,
      "thousands": 2908,
      "guarantees": 2909,
      "class": 2910,
      "pill": 2911,
      "pati": 2912,
      "elimin": 2913,
      "anyone": 2914,
      "turkish": 2915,
      "freedoms": 2916,
      "send": 2917,
      "renewable": 2918,
      "tot": 2919,
      "sovere": 2920,
      "sovereign": 2921,
      "ana": 2922,
      "comply": 2923,
      "continuing": 2924,
      "rejected": 2925,
      "assu": 2926,
      "simple": 2927,
      "forth": 2928,
      "goals": 2929,
      "promotion": 2930,
      "centre": 2931,
      "abol": 2932,
      "leaders": 2933,
      "engen": 2934,
      "neither": 2935,
      "insist": 2936,
      "discharge": 2937,
      "amster": 2938,
      "amsterdam": 2939,
      "payments": 2940,
      "merely": 2941,
      "substantial": 2942,
      "drugs": 2943,
      "trafficking": 2944,
      "ream": 2945,
      "figu": 2946,
      "linked": 2947,
      "worked": 2948,
      "pu": 2949,
      "told": 2950,
      "adver": 2951,
      "grate": 2952,
      "lower": 2953,
      "rich": 2954,
      "figures": 2955,
      "smes": 2956,
      "max": 2957,
      "schengen": 2958,
      "repeat": 2959,
      "disaster": 2960,
      "enjo": 2961,
      "deli": 2962,
      "votes": 2963,
      "exercise": 2964,
      "subsidiarity": 2965,
      "rid": 2966,
      "impossible": 2967,
      "controls": 2968,
      "resolve": 2969,
      "late": 2970,
      "peoples": 2971,
      "ron": 2972,
      "lost": 2973,
      "judicial": 2974,
      "evidence": 2975,
      "adequate": 2976,
      "income": 2977,
      "preser": 2978,
      "taint": 2979,
      "instance": 2980,
      "forest": 2981,
      "includes": 2982,
      "bind": 2983,
      "election": 2984,
      "vice": 2985,
      "perman": 2986,
      "don": 2987,
      "ky": 2988,
      "situations": 2989,
      "fuel": 2990,
      "speakers": 2991,
      "balk": 2992,
      "labe": 2993,
      "ka": 2994,
      "belar": 2995,
      "bringing": 2996,
      "ilateral": 2997,
      "asks": 2998,
      "div": 2999,
      "please": 3000,
      "territory": 3001,
      "adjust": 3002,
      "usive": 3003,
      "certaint": 3004,
      "adopting": 3005,
      "families": 3006,
      "hood": 3007,
      "believ": 3008,
      "obst": 3009,
      "desire": 3010,
      "tempor": 3011,
      "ds": 3012,
      "plen": 3013,
      "sole": 3014,
      "totally": 3015,
      "barro": 3016,
      "wishes": 3017,
      "promis": 3018,
      "attitude": 3019,
      "consistent": 3020,
      "degree": 3021,
      "exec": 3022,
      "employed": 3023,
      "arms": 3024,
      "assem": 3025,
      "economies": 3026,
      "disput": 3027,
      "geo": 3028,
      "pillar": 3029,
      "acts": 3030,
      "capable": 3031,
      "extend": 3032,
      "surpr": 3033,
      "committees": 3034,
      "socialist": 3035,
      "employe": 3036,
      "wonder": 3037,
      "reasonable": 3038,
      "fill": 3039,
      "dy": 3040,
      "publish": 3041,
      "aries": 3042,
      "failed": 3043,
      "cypr": 3044,
      "travel": 3045,
      "cyprus": 3046,
      "tedly": 3047,
      "consolid": 3048,
      "involving": 3049,
      "supports": 3050,
      "phas": 3051,
      "existence": 3052,
      "intend": 3053,
      "protecting": 3054,
      "ang": 3055,
      "obstac": 3056,
      "involvement": 3057,
      "belarus": 3058,
      "seven": 3059,
      "volun": 3060,
      "shar": 3061,
      "typ": 3062,
      "grateful": 3063,
      "talks": 3064,
      "expected": 3065,
      "gence": 3066,
      "poland": 3067,
      "perfect": 3068,
      "getting": 3069,
      "noon": 3070,
      "rad": 3071,
      "weapons": 3072,
      "courage": 3073,
      "goal": 3074,
      "compla": 3075,
      "rs": 3076,
      "opposed": 3077,
      "attemp": 3078,
      "disease": 3079,
      "mobility": 3080,
      "actual": 3081,
      "starting": 3082,
      "recognised": 3083,
      "truly": 3084,
      "learn": 3085,
      "plenary": 3086,
      "portugal": 3087,
      "bor": 3088,
      "original": 3089,
      "itime": 3090,
      "customs": 3091,
      "maritime": 3092,
      "afgh": 3093,
      "immediate": 3094,
      "ired": 3095,
      "binding": 3096,
      "factor": 3097,
      "july": 3098,
      "evaluation": 3099,
      "element": 3100,
      "personally": 3101,
      "modif": 3102,
      "space": 3103,
      "substances": 3104,
      "auditors": 3105,
      "continent": 3106,
      "pollution": 3107,
      "sides": 3108,
      "consequently": 3109,
      "happening": 3110,
      "equip": 3111,
      "greatest": 3112,
      "seeking": 3113,
      "sor": 3114,
      "interesting": 3115,
      "undertaking": 3116,
      "heads": 3117,
      "glad": 3118,
      "keeping": 3119,
      "communications": 3120,
      "atl": 3121,
      "feed": 3122,
      "break": 3123,
      "afghan": 3124,
      "confirm": 3125,
      "competence": 3126,
      "conserv": 3127,
      "meetings": 3128,
      "zone": 3129,
      "resolved": 3130,
      "followed": 3131,
      "granted": 3132,
      "minorities": 3133,
      "likely": 3134,
      "undermin": 3135,
      "northern": 3136,
      "atlantic": 3137,
      "opt": 3138,
      "designed": 3139,
      "tackle": 3140,
      "umer": 3141,
      "plom": 3142,
      "african": 3143,
      "shared": 3144,
      "diplom": 3145,
      "harm": 3146,
      "ba": 3147,
      "compliance": 3148,
      "stock": 3149,
      "harmonisation": 3150,
      "suffering": 3151,
      "compar": 3152,
      "cz": 3153,
      "target": 3154,
      "explain": 3155,
      "advoc": 3156,
      "detailed": 3157,
      "fare": 3158,
      "pan": 3159,
      "ruption": 3160,
      "proposing": 3161,
      "spent": 3162,
      "carefully": 3163,
      "functioning": 3164,
      "manufacture": 3165,
      "criticism": 3166,
      "endor": 3167,
      "assembly": 3168,
      "subsidies": 3169,
      "taxation": 3170,
      "recovery": 3171,
      "amongst": 3172,
      "equally": 3173,
      "sweden": 3174,
      "certainty": 3175,
      "series": 3176,
      "continues": 3177,
      "minority": 3178,
      "tation": 3179,
      "confir": 3180,
      "generally": 3181,
      "commissioners": 3182,
      "banks": 3183,
      "voice": 3184,
      "arri": 3185,
      "ford": 3186,
      "pros": 3187,
      "thereby": 3188,
      "nice": 3189,
      "yed": 3190,
      "numer": 3191,
      "rev": 3192,
      "isive": 3193,
      "excessive": 3194,
      "aver": 3195,
      "sport": 3196,
      "improvements": 3197,
      "consumption": 3198,
      "emphasis": 3199,
      "enforce": 3200,
      "fy": 3201,
      "tru": 3202,
      "labelling": 3203,
      "professional": 3204,
      "planning": 3205,
      "defic": 3206,
      "chairman": 3207,
      "moving": 3208,
      "ordinary": 3209,
      "presence": 3210,
      "causes": 3211,
      "grounds": 3212,
      "bilateral": 3213,
      "bulgar": 3214,
      "ped": 3215,
      "kill": 3216,
      "ril": 3217,
      "justified": 3218,
      "debt": 3219,
      "mus": 3220,
      "temporary": 3221,
      "vehicles": 3222,
      "languages": 3223,
      "terrorist": 3224,
      "stra": 3225,
      "delight": 3226,
      "regulatory": 3227,
      "floor": 3228,
      "experts": 3229,
      "acp": 3230,
      "flexible": 3231,
      "endorse": 3232,
      "hund": 3233,
      "hundred": 3234,
      "compensation": 3235,
      "enced": 3236,
      "limits": 3237,
      "riers": 3238,
      "religious": 3239,
      "lux": 3240,
      "pun": 3241,
      "fulfil": 3242,
      "hours": 3243,
      "dr": 3244,
      "entry": 3245,
      "avi": 3246,
      "defined": 3247,
      "hol": 3248,
      "permanent": 3249,
      "condition": 3250,
      "visit": 3251,
      "son": 3252,
      "ppe": 3253,
      "entit": 3254,
      "stake": 3255,
      "bulgaria": 3256,
      "swedish": 3257,
      "lastly": 3258,
      "ats": 3259,
      "legally": 3260,
      "barroso": 3261,
      "politicians": 3262,
      "domestic": 3263,
      "prosper": 3264,
      "april": 3265,
      "greek": 3266,
      "withdraw": 3267,
      "repeated": 3268,
      "base": 3269,
      "employees": 3270,
      "arrangements": 3271,
      "tach": 3272,
      "nes": 3273,
      "white": 3274,
      "credibility": 3275,
      "maximum": 3276,
      "works": 3277,
      "ifying": 3278,
      "technological": 3279,
      "obligation": 3280,
      "settle": 3281,
      "tobac": 3282,
      "dro": 3283,
      "arrest": 3284,
      "initial": 3285,
      "usu": 3286,
      "tobacco": 3287,
      "trading": 3288,
      "alliance": 3289,
      "heav": 3290,
      "destro": 3291,
      "fighting": 3292,
      "operating": 3293,
      "sche": 3294,
      "option": 3295,
      "unless": 3296,
      "immigrants": 3297,
      "smo": 3298,
      "dow": 3299,
      "preced": 3300,
      "fine": 3301,
      "visa": 3302,
      "appears": 3303,
      "encouraging": 3304,
      "ses": 3305,
      "participate": 3306,
      "tered": 3307,
      "ultimately": 3308,
      "payment": 3309,
      "played": 3310,
      "supplement": 3311,
      "collective": 3312,
      "gave": 3313,
      "speaker": 3314,
      "source": 3315,
      "politics": 3316,
      "signal": 3317,
      "factors": 3318,
      "started": 3319,
      "czech": 3320,
      "entially": 3321,
      "gradu": 3322,
      "contributions": 3323,
      "az": 3324,
      "ouble": 3325,
      "saving": 3326,
      "ie": 3327,
      "whate": 3328,
      "pie": 3329,
      "century": 3330,
      "determination": 3331,
      "imposed": 3332,
      "whatever": 3333,
      "code": 3334,
      "usa": 3335,
      "decisive": 3336,
      "easier": 3337,
      "oud": 3338,
      "attacks": 3339,
      "delighted": 3340,
      "inclusion": 3341,
      "apart": 3342,
      "belong": 3343,
      "welfare": 3344,
      "ugh": 3345,
      "coast": 3346,
      "proposes": 3347,
      "reaching": 3348,
      "ank": 3349,
      "attach": 3350,
      "ivity": 3351,
      "dign": 3352,
      "ethnic": 3353,
      "croat": 3354,
      "nato": 3355,
      "crimes": 3356,
      "win": 3357,
      "ality": 3358,
      "sc": 3359,
      "migration": 3360,
      "effectiveness": 3361,
      "facilitate": 3362,
      "oration": 3363,
      "respected": 3364,
      "roma": 3365,
      "numerous": 3366,
      "occasion": 3367,
      "voluntary": 3368,
      "bene": 3369,
      "io": 3370,
      "conflicts": 3371,
      "awareness": 3372,
      "za": 3373,
      "sibly": 3374,
      "appropriations": 3375,
      "prefer": 3376,
      "enabl": 3377,
      "ombud": 3378,
      "investments": 3379,
      "fourth": 3380,
      "continued": 3381,
      "west": 3382,
      "fru": 3383,
      "ombuds": 3384,
      "plant": 3385,
      "compat": 3386,
      "turning": 3387,
      "vul": 3388,
      "exem": 3389,
      "igno": 3390,
      "vast": 3391,
      "opinions": 3392,
      "rac": 3393,
      "engers": 3394,
      "nonetheless": 3395,
      "satisfactory": 3396,
      "incent": 3397,
      "balkans": 3398,
      "interested": 3399,
      "passengers": 3400,
      "hagen": 3401,
      "ecu": 3402,
      "teed": 3403,
      "guaranteed": 3404,
      "tasks": 3405,
      "helping": 3406,
      "scheme": 3407,
      "negotiating": 3408,
      "astr": 3409,
      "requirement": 3410,
      "truth": 3411,
      "millions": 3412,
      "spending": 3413,
      "realistic": 3414,
      "stras": 3415,
      "disasters": 3416,
      "evening": 3417,
      "supervision": 3418,
      "traditional": 3419,
      "vulner": 3420,
      "operations": 3421,
      "complic": 3422,
      "hence": 3423,
      "restrictions": 3424,
      "react": 3425,
      "allowing": 3426,
      "wit": 3427,
      "contract": 3428,
      "ature": 3429,
      "strasbourg": 3430,
      "pol": 3431,
      "onia": 3432,
      "imag": 3433,
      "forthcoming": 3434,
      "solve": 3435,
      "ient": 3436,
      "auto": 3437,
      "ventions": 3438,
      "chines": 3439,
      "quant": 3440,
      "emergency": 3441,
      "luxem": 3442,
      "worse": 3443,
      "protected": 3444,
      "letter": 3445,
      "impose": 3446,
      "va": 3447,
      "submit": 3448,
      "electric": 3449,
      "therlands": 3450,
      "mur": 3451,
      "vene": 3452,
      "black": 3453,
      "netherlands": 3454,
      "ival": 3455,
      "normal": 3456,
      "estim": 3457,
      "contrad": 3458,
      "diseas": 3459,
      "purposes": 3460,
      "cks": 3461,
      "flow": 3462,
      "referendum": 3463,
      "examine": 3464,
      "respective": 3465,
      "poo": 3466,
      "corruption": 3467,
      "warm": 3468,
      "distribution": 3469,
      "electron": 3470,
      "ombudsman": 3471,
      "diseases": 3472,
      "examples": 3473,
      "associated": 3474,
      "luxembourg": 3475,
      "fring": 3476,
      "chem": 3477,
      "separate": 3478,
      "sexual": 3479,
      "legitimate": 3480,
      "holding": 3481,
      "operators": 3482,
      "baltic": 3483,
      "openhagen": 3484,
      "demonstrated": 3485,
      "deliver": 3486,
      "copenhagen": 3487,
      "insurance": 3488,
      "urban": 3489,
      "peaceful": 3490,
      "officials": 3491,
      "individuals": 3492,
      "frequ": 3493,
      "exists": 3494,
      "bes": 3495,
      "foot": 3496,
      "valu": 3497,
      "gone": 3498,
      "georg": 3499,
      "revision": 3500,
      "skill": 3501,
      "nt": 3502,
      "teen": 3503,
      "exclusion": 3504,
      "places": 3505,
      "og": 3506,
      "sad": 3507,
      "thorough": 3508,
      "youth": 3509,
      "india": 3510,
      "universal": 3511,
      "changing": 3512,
      "gap": 3513,
      "treated": 3514,
      "remarks": 3515,
      "demonstrate": 3516,
      "occasions": 3517,
      "afghanistan": 3518,
      "primarily": 3519,
      "passed": 3520,
      "tried": 3521,
      "contained": 3522,
      "bound": 3523,
      "attle": 3524,
      "meaning": 3525,
      "considering": 3526,
      "tro": 3527,
      "alban": 3528,
      "knows": 3529,
      "average": 3530,
      "sil": 3531,
      "assure": 3532,
      "portugu": 3533,
      "approve": 3534,
      "formul": 3535,
      "quot": 3536,
      "obli": 3537,
      "retain": 3538,
      "relative": 3539,
      "city": 3540,
      "operational": 3541,
      "statistics": 3542,
      "portuguese": 3543,
      "beha": 3544,
      "overcome": 3545,
      "concluded": 3546,
      "austria": 3547,
      "amounts": 3548,
      "chemical": 3549,
      "penalty": 3550,
      "version": 3551,
      "ini": 3552,
      "promises": 3553,
      "entitled": 3554,
      "slow": 3555,
      "toler": 3556,
      "types": 3557,
      "offers": 3558,
      "ff": 3559,
      "definite": 3560,
      "dignity": 3561,
      "noted": 3562,
      "oppos": 3563,
      "infring": 3564,
      "condemn": 3565,
      "push": 3566,
      "blo": 3567,
      "restric": 3568,
      "vak": 3569,
      "spread": 3570,
      "unders": 3571,
      "undoub": 3572,
      "popul": 3573,
      "ham": 3574,
      "quar": 3575,
      "federal": 3576,
      "mic": 3577,
      "cub": 3578,
      "yu": 3579,
      "extended": 3580,
      "property": 3581,
      "dp": 3582,
      "ships": 3583,
      "difference": 3584,
      "hands": 3585,
      "ito": 3586,
      "planned": 3587,
      "meat": 3588,
      "surely": 3589,
      "involves": 3590,
      "realise": 3591,
      "gment": 3592,
      "amending": 3593,
      "obstacles": 3594,
      "substance": 3595,
      "qualified": 3596,
      "subsequ": 3597,
      "farming": 3598,
      "violations": 3599,
      "firmly": 3600,
      "ded": 3601,
      "rend": 3602,
      "bla": 3603,
      "southern": 3604,
      "reiter": 3605,
      "felt": 3606,
      "stable": 3607,
      "represented": 3608,
      "allocated": 3609,
      "introducing": 3610,
      "room": 3611,
      "impression": 3612,
      "dutch": 3613,
      "cooperate": 3614,
      "vulnerable": 3615,
      "imports": 3616,
      "compared": 3617,
      "electronic": 3618,
      "croatia": 3619,
      "febr": 3620,
      "geograph": 3621,
      "february": 3622,
      "chinese": 3623,
      "sn": 3624,
      "ilo": 3625,
      "appare": 3626,
      "studies": 3627,
      "clause": 3628,
      "contact": 3629,
      "xed": 3630,
      "productive": 3631,
      "lose": 3632,
      "preventing": 3633,
      "asia": 3634,
      "unfair": 3635,
      "undoubtedly": 3636,
      "requested": 3637,
      "school": 3638,
      "taxes": 3639,
      "ij": 3640,
      "formal": 3641,
      "implic": 3642,
      "kore": 3643,
      "extension": 3644,
      "apparent": 3645,
      "alle": 3646,
      "industries": 3647,
      "destru": 3648,
      "shadow": 3649,
      "cel": 3650,
      "somewhat": 3651,
      "fiscal": 3652,
      "deplo": 3653,
      "happens": 3654,
      "fishermen": 3655,
      "ilt": 3656,
      "ests": 3657,
      "determined": 3658,
      "lights": 3659,
      "proh": 3660,
      "preparing": 3661,
      "honest": 3662,
      "coordinated": 3663,
      "spoken": 3664,
      "tool": 3665,
      "allows": 3666,
      "distort": 3667,
      "mobil": 3668,
      "latter": 3669,
      "highest": 3670,
      "gro": 3671,
      "applying": 3672,
      "drawing": 3673,
      "prodi": 3674,
      "worry": 3675,
      "phen": 3676,
      "slovak": 3677,
      "abuse": 3678,
      "engage": 3679,
      "vig": 3680,
      "inade": 3681,
      "iling": 3682,
      "appointed": 3683,
      "da": 3684,
      "lying": 3685,
      "announced": 3686,
      "fruit": 3687,
      "phase": 3688,
      "bol": 3689,
      "stronger": 3690,
      "dynam": 3691,
      "israeli": 3692,
      "replace": 3693,
      "finding": 3694,
      "behavi": 3695,
      "quotas": 3696,
      "afford": 3697,
      "aviation": 3698,
      "patent": 3699,
      "witness": 3700,
      "ngos": 3701,
      "codecision": 3702,
      "embar": 3703,
      "comed": 3704,
      "details": 3705,
      "acknowledge": 3706,
      "expectations": 3707,
      "processes": 3708,
      "attra": 3709,
      "ense": 3710,
      "relates": 3711,
      "dependent": 3712,
      "ale": 3713,
      "visory": 3714,
      "pure": 3715,
      "territorial": 3716,
      "hom": 3717,
      "lin": 3718,
      "facts": 3719,
      "convergence": 3720,
      "advert": 3721,
      "accounts": 3722,
      "coherent": 3723,
      "behaviour": 3724,
      "spoke": 3725,
      "taxpay": 3726,
      "proceedings": 3727,
      "marg": 3728,
      "sight": 3729,
      "appreciate": 3730,
      "contradict": 3731,
      "urgently": 3732,
      "welcomed": 3733,
      "latest": 3734,
      "compe": 3735,
      "constantly": 3736,
      "exclusive": 3737,
      "prosperity": 3738,
      "clean": 3739,
      "advance": 3740,
      "confirmed": 3741,
      "abstain": 3742,
      "historic": 3743,
      "unity": 3744,
      "phenomen": 3745,
      "pursue": 3746,
      "ende": 3747,
      "politically": 3748,
      "barriers": 3749,
      "stocks": 3750,
      "gosla": 3751,
      "lam": 3752,
      "sphere": 3753,
      "yugosla": 3754,
      "fig": 3755,
      "duties": 3756,
      "genet": 3757,
      "strategies": 3758,
      "exploitation": 3759,
      "intends": 3760,
      "alter": 3761,
      "orate": 3762,
      "stream": 3763,
      "islam": 3764,
      "stabil": 3765,
      "aband": 3766,
      "cop": 3767,
      "surve": 3768,
      "strengthened": 3769,
      "night": 3770,
      "intent": 3771,
      "define": 3772,
      "learning": 3773,
      "described": 3774,
      "maintaining": 3775,
      "statute": 3776,
      "briefly": 3777,
      "decent": 3778,
      "uniform": 3779,
      "arguments": 3780,
      "serbia": 3781,
      "tood": 3782,
      "understood": 3783,
      "cities": 3784,
      "sensible": 3785,
      "ral": 3786,
      "innovative": 3787,
      "advantages": 3788,
      "ancing": 3789,
      "viet": 3790,
      "abs": 3791,
      "tradition": 3792,
      "wall": 3793,
      "structuring": 3794,
      "saw": 3795,
      "journal": 3796,
      "jap": 3797,
      "fields": 3798,
      "largest": 3799,
      "tend": 3800,
      "kept": 3801,
      "clarify": 3802,
      "generation": 3803,
      "ratification": 3804,
      "flood": 3805,
      "stay": 3806,
      "resist": 3807,
      "japan": 3808,
      "stu": 3809,
      "virt": 3810,
      "optim": 3811,
      "mono": 3812,
      "enty": 3813,
      "multilateral": 3814,
      "plants": 3815,
      "dispos": 3816,
      "published": 3817,
      "anne": 3818,
      "leadership": 3819,
      "cars": 3820,
      "resto": 3821,
      "accidents": 3822,
      "imper": 3823,
      "sovereignty": 3824,
      "iding": 3825,
      "marked": 3826,
      "electricity": 3827,
      "beings": 3828,
      "inated": 3829,
      "iff": 3830,
      "wait": 3831,
      "patients": 3832,
      "materials": 3833,
      "largely": 3834,
      "touch": 3835,
      "contracts": 3836,
      "equipment": 3837,
      "traged": 3838,
      "debating": 3839,
      "correspond": 3840,
      "friendly": 3841,
      "socialists": 3842,
      "texts": 3843,
      "wealth": 3844,
      "ots": 3845,
      "ya": 3846,
      "bir": 3847,
      "interinstitutional": 3848,
      "undertaken": 3849,
      "inspe": 3850,
      "television": 3851,
      "seeing": 3852,
      "hungarian": 3853,
      "ofin": 3854,
      "catch": 3855,
      "follows": 3856,
      "identity": 3857,
      "tests": 3858,
      "evalu": 3859,
      "compul": 3860,
      "pak": 3861,
      "stim": 3862,
      "reconstruction": 3863,
      "brings": 3864,
      "driving": 3865,
      "believes": 3866,
      "perfectly": 3867,
      "amended": 3868,
      "vat": 3869,
      "urs": 3870,
      "significantly": 3871,
      "restructuring": 3872,
      "ania": 3873,
      "pakistan": 3874,
      "habit": 3875,
      "medical": 3876,
      "answers": 3877,
      "ongoing": 3878,
      "depart": 3879,
      "carbon": 3880,
      "medicines": 3881,
      "waiting": 3882,
      "presidents": 3883,
      "users": 3884,
      "host": 3885,
      "ifications": 3886,
      "transition": 3887,
      "endeav": 3888,
      "pped": 3889,
      "playing": 3890,
      "careful": 3891,
      "gic": 3892,
      "offered": 3893,
      "chap": 3894,
      "iders": 3895,
      "urgency": 3896,
      "someone": 3897,
      "wine": 3898,
      "lined": 3899,
      "udes": 3900,
      "spects": 3901,
      "producing": 3902,
      "news": 3903,
      "figure": 3904,
      "zer": 3905,
      "teach": 3906,
      "satisfied": 3907,
      "profit": 3908,
      "arab": 3909,
      "enjoy": 3910,
      "vic": 3911,
      "negotiation": 3912,
      "mann": 3913,
      "sory": 3914,
      "exports": 3915,
      "expert": 3916,
      "nl": 3917,
      "ino": 3918,
      "lection": 3919,
      "spr": 3920,
      "opho": 3921,
      "highlighted": 3922,
      "execut": 3923,
      "argument": 3924,
      "extensive": 3925,
      "xic": 3926,
      "ilities": 3927,
      "difficulty": 3928,
      "significance": 3929,
      "analy": 3930,
      "sufficiently": 3931,
      "sold": 3932,
      "moroc": 3933,
      "ased": 3934,
      "inqu": 3935,
      "actively": 3936,
      "built": 3937,
      "constitu": 3938,
      "referring": 3939,
      "compulsory": 3940,
      "disposal": 3941,
      "aside": 3942,
      "holders": 3943,
      "bosn": 3944,
      "absence": 3945,
      "moral": 3946,
      "honour": 3947,
      "sions": 3948,
      "dail": 3949,
      "envis": 3950,
      "surv": 3951,
      "scand": 3952,
      "adapt": 3953,
      "oto": 3954,
      "supposed": 3955,
      "latin": 3956,
      "waters": 3957,
      "vessels": 3958,
      "preparation": 3959,
      "scr": 3960,
      "eight": 3961,
      "sustainability": 3962,
      "infringe": 3963,
      "sets": 3964,
      "resulting": 3965,
      "abilities": 3966,
      "daily": 3967,
      "distin": 3968,
      "choose": 3969,
      "genuinely": 3970,
      "deficit": 3971,
      "dictator": 3972,
      "onom": 3973,
      "considers": 3974,
      "neighbours": 3975,
      "governing": 3976,
      "friends": 3977,
      "enforcement": 3978,
      "ering": 3979,
      "valuable": 3980,
      "evident": 3981,
      "ered": 3982,
      "orient": 3983,
      "wea": 3984,
      "ades": 3985,
      "transitional": 3986,
      "leads": 3987,
      "primary": 3988,
      "declared": 3989,
      "coal": 3990,
      "boost": 3991,
      "core": 3992,
      "deliber": 3993,
      "georgia": 3994,
      "divid": 3995,
      "forum": 3996,
      "bse": 3997,
      "healthy": 3998,
      "investigation": 3999,
      "finland": 4000,
      "gdp": 4001,
      "stimul": 4002,
      "reaction": 4003,
      "neighbourhood": 4004,
      "greens": 4005,
      "intellect": 4006,
      "acknowled": 4007,
      "isol": 4008,
      "weight": 4009,
      "running": 4010,
      "ery": 4011,
      "reserv": 4012,
      "becomes": 4013,
      "proof": 4014,
      "mart": 4015,
      "neighbouring": 4016,
      "judge": 4017,
      "verse": 4018,
      "team": 4019,
      "bab": 4020,
      "wider": 4021,
      "consci": 4022,
      "accident": 4023,
      "compatible": 4024,
      "destruction": 4025,
      "sla": 4026,
      "milk": 4027,
      "slight": 4028,
      "constitute": 4029,
      "previously": 4030,
      "schem": 4031,
      "mag": 4032,
      "awa": 4033,
      "numbers": 4034,
      "requests": 4035,
      "interpretation": 4036,
      "accus": 4037,
      "identify": 4038,
      "suggested": 4039,
      "identified": 4040,
      "reci": 4041,
      "europol": 4042,
      "size": 4043,
      "species": 4044,
      "assume": 4045,
      "double": 4046,
      "section": 4047,
      "launched": 4048,
      "elsewhere": 4049,
      "abandon": 4050,
      "competent": 4051,
      "petitions": 4052,
      "radical": 4053,
      "thu": 4054,
      "burg": 4055,
      "societies": 4056,
      "herit": 4057,
      "charges": 4058,
      "mc": 4059,
      "listen": 4060,
      "thurs": 4061,
      "promised": 4062,
      "asp": 4063,
      "schemes": 4064,
      "possibly": 4065,
      "ith": 4066,
      "valid": 4067,
      "hous": 4068,
      "partly": 4069,
      "check": 4070,
      "swi": 4071,
      "acting": 4072,
      "attempts": 4073,
      "flag": 4074,
      "kyoto": 4075,
      "ona": 4076,
      "speeches": 4077,
      "etc": 4078,
      "guaranteeing": 4079,
      "monopo": 4080,
      "complement": 4081,
      "autonom": 4082,
      "dig": 4083,
      "heading": 4084,
      "inadequate": 4085,
      "indicated": 4086,
      "armed": 4087,
      "regarded": 4088,
      "transl": 4089,
      "concentrate": 4090,
      "secretary": 4091,
      "thursday": 4092,
      "fast": 4093,
      "strugg": 4094,
      "maintained": 4095,
      "strength": 4096,
      "massive": 4097,
      "links": 4098,
      "polish": 4099,
      "collab": 4100,
      "greatly": 4101,
      "ishing": 4102,
      "intellectual": 4103,
      "motor": 4104,
      "acquis": 4105,
      "volution": 4106,
      "whereas": 4107,
      "warning": 4108,
      "favourable": 4109,
      "belgian": 4110,
      "opposite": 4111,
      "stands": 4112,
      "blood": 4113,
      "hit": 4114,
      "ik": 4115,
      "meant": 4116,
      "timetable": 4117,
      "opened": 4118,
      "iry": 4119,
      "ene": 4120,
      "aids": 4121,
      "bill": 4122,
      "cheap": 4123,
      "britain": 4124,
      "bearing": 4125,
      "tragic": 4126,
      "gory": 4127,
      "cure": 4128,
      "sac": 4129,
      "haz": 4130,
      "ops": 4131,
      "release": 4132,
      "thanking": 4133,
      "ength": 4134,
      "prisoners": 4135,
      "completed": 4136,
      "cs": 4137,
      "obliged": 4138,
      "mental": 4139,
      "implications": 4140,
      "went": 4141,
      "topic": 4142,
      "enger": 4143,
      "category": 4144,
      "enhance": 4145,
      "caution": 4146,
      "suffered": 4147,
      "carrying": 4148,
      "modified": 4149,
      "intensive": 4150,
      "firms": 4151,
      "appointment": 4152,
      "count": 4153,
      "ior": 4154,
      "possibilities": 4155,
      "correctly": 4156,
      "bosnia": 4157,
      "essentially": 4158,
      "necessarily": 4159,
      "complicated": 4160,
      "suitable": 4161,
      "centres": 4162,
      "options": 4163,
      "reven": 4164,
      "remove": 4165,
      "deserves": 4166,
      "hundreds": 4167,
      "approx": 4168,
      "incident": 4169,
      "issued": 4170,
      "cratic": 4171,
      "seas": 4172,
      "terri": 4173,
      "fifth": 4174,
      "hungary": 4175,
      "iny": 4176,
      "affects": 4177,
      "spring": 4178,
      "ipul": 4179,
      "regulated": 4180,
      "addressing": 4181,
      "racism": 4182,
      "schools": 4183,
      "remark": 4184,
      "debated": 4185,
      "seeks": 4186,
      "passenger": 4187,
      "belief": 4188,
      "pensions": 4189,
      "himself": 4190,
      "austrian": 4191,
      "prospects": 4192,
      "conducted": 4193,
      "raising": 4194,
      "heavy": 4195,
      "extending": 4196,
      "chosen": 4197,
      "inev": 4198,
      "consul": 4199,
      "tort": 4200,
      "explic": 4201,
      "settlement": 4202,
      "secut": 4203,
      "length": 4204,
      "ange": 4205,
      "radio": 4206,
      "helped": 4207,
      "sorry": 4208,
      "belgium": 4209,
      "nobody": 4210,
      "appla": 4211,
      "definitely": 4212,
      "rational": 4213,
      "successfully": 4214,
      "diplomatic": 4215,
      "alco": 4216,
      "spite": 4217,
      "ls": 4218,
      "ambi": 4219,
      "hearing": 4220,
      "openness": 4221,
      "worldwide": 4222,
      "willingness": 4223,
      "advertising": 4224,
      "afternoon": 4225,
      "minute": 4226,
      "lob": 4227,
      "annex": 4228,
      "harmful": 4229,
      "purely": 4230,
      "focused": 4231,
      "omb": 4232,
      "heritage": 4233,
      "gers": 4234,
      "fulfill": 4235,
      "poorest": 4236,
      "facilities": 4237,
      "supplementary": 4238,
      "crises": 4239,
      "swift": 4240,
      "ratified": 4241,
      "earth": 4242,
      "danish": 4243,
      "moun": 4244,
      "forman": 4245,
      "lithu": 4246,
      "town": 4247,
      "save": 4248,
      "korea": 4249,
      "mistake": 4250,
      "sugar": 4251,
      "pollut": 4252,
      "reliable": 4253,
      "accordingly": 4254,
      "atures": 4255,
      "piece": 4256,
      "intentions": 4257,
      "frank": 4258,
      "phys": 4259,
      "stor": 4260,
      "percent": 4261,
      "players": 4262,
      "cf": 4263,
      "worst": 4264,
      "performan": 4265,
      "deals": 4266,
      "door": 4267,
      "tools": 4268,
      "block": 4269,
      "purch": 4270,
      "whereby": 4271,
      "reinforce": 4272,
      "worrying": 4273,
      "considerations": 4274,
      "imagine": 4275,
      "rapidly": 4276,
      "discrimin": 4277,
      "tragedy": 4278,
      "resum": 4279,
      "nationals": 4280,
      "unanimously": 4281,
      "solely": 4282,
      "reve": 4283,
      "rome": 4284,
      "island": 4285,
      "arise": 4286,
      "demanding": 4287,
      "determine": 4288,
      "skills": 4289,
      "vail": 4290,
      "fication": 4291,
      "background": 4292,
      "expand": 4293,
      "barcel": 4294,
      "barcelona": 4295,
      "taxpayers": 4296,
      "stressed": 4297,
      "advice": 4298,
      "cuts": 4299,
      "enabling": 4300,
      "rou": 4301,
      "easily": 4302,
      "swit": 4303,
      "lif": 4304,
      "depth": 4305,
      "tit": 4306,
      "controver": 4307,
      "geographical": 4308,
      "wing": 4309,
      "manufacturers": 4310,
      "hn": 4311,
      "ume": 4312,
      "relatively": 4313,
      "faith": 4314,
      "breach": 4315,
      "foremost": 4316,
      "extreme": 4317,
      "increases": 4318,
      "watch": 4319,
      "rant": 4320,
      "biodiversity": 4321,
      "torture": 4322,
      "cod": 4323,
      "hopes": 4324,
      "phenomenon": 4325,
      "profits": 4326,
      "paying": 4327,
      "depends": 4328,
      "claims": 4329,
      "achievement": 4330,
      "granting": 4331,
      "respects": 4332,
      "dispute": 4333,
      "prevail": 4334,
      "ideo": 4335,
      "fers": 4336,
      "enn": 4337,
      "exceed": 4338,
      "laf": 4339,
      "considerably": 4340,
      "savings": 4341,
      "posing": 4342,
      "explicit": 4343,
      "experienced": 4344,
      "rees": 4345,
      "everybody": 4346,
      "craft": 4347,
      "refers": 4348,
      "mother": 4349,
      "doubts": 4350,
      "conce": 4351,
      "explanation": 4352,
      "threats": 4353,
      "transatlantic": 4354,
      "competences": 4355,
      "looked": 4356,
      "pict": 4357,
      "proud": 4358,
      "categor": 4359,
      "eye": 4360,
      "decades": 4361,
      "quote": 4362,
      "legitimacy": 4363,
      "fit": 4364,
      "worthy": 4365,
      "remaining": 4366,
      "pse": 4367,
      "sake": 4368,
      "clarity": 4369,
      "powerful": 4370,
      "feeling": 4371,
      "satisfaction": 4372,
      "entrep": 4373,
      "performance": 4374,
      "commod": 4375,
      "cipl": 4376,
      "fire": 4377,
      "entrepren": 4378,
      "canad": 4379,
      "environmentally": 4380,
      "applicable": 4381,
      "scot": 4382,
      "stuff": 4383,
      "emphasised": 4384,
      "denmark": 4385,
      "gress": 4386,
      "prospect": 4387,
      "raid": 4388,
      "kers": 4389,
      "recall": 4390,
      "protest": 4391,
      "bureaucracy": 4392,
      "encing": 4393,
      "obser": 4394,
      "undertakings": 4395,
      "perform": 4396,
      "cycl": 4397,
      "beef": 4398,
      "spend": 4399,
      "eva": 4400,
      "ables": 4401,
      "ecb": 4402,
      "fal": 4403,
      "courts": 4404,
      "founded": 4405,
      "admit": 4406,
      "contributed": 4407,
      "usual": 4408,
      "collect": 4409,
      "ley": 4410,
      "regrettable": 4411,
      "dynamic": 4412,
      "summer": 4413,
      "islands": 4414,
      "wered": 4415,
      "shortcoming": 4416,
      "erly": 4417,
      "encouraged": 4418,
      "endors": 4419,
      "twenty": 4420,
      "negotiated": 4421,
      "entered": 4422,
      "oppose": 4423,
      "airlines": 4424,
      "tor": 4425,
      "historical": 4426,
      "controlled": 4427,
      "communist": 4428,
      "reflected": 4429,
      "restricted": 4430,
      "chain": 4431,
      "maced": 4432,
      "compon": 4433,
      "tariff": 4434,
      "sloven": 4435,
      "mos": 4436,
      "succeeded": 4437,
      "icht": 4438,
      "violation": 4439,
      "rupt": 4440,
      "pled": 4441,
      "constitutes": 4442,
      "motions": 4443,
      "cuba": 4444,
      "resh": 4445,
      "dered": 4446,
      "egy": 4447,
      "tight": 4448,
      "precedent": 4449,
      "died": 4450,
      "greenhouse": 4451,
      "tunis": 4452,
      "zim": 4453,
      "oured": 4454,
      "examined": 4455,
      "unnecessary": 4456,
      "articles": 4457,
      "privi": 4458,
      "irable": 4459,
      "simplification": 4460,
      "chech": 4461,
      "thres": 4462,
      "threshold": 4463,
      "representation": 4464,
      "rig": 4465,
      "leaving": 4466,
      "alleg": 4467,
      "biggest": 4468,
      "permit": 4469,
      "detri": 4470,
      "processing": 4471,
      "affecting": 4472,
      "illust": 4473,
      "subjects": 4474,
      "macro": 4475,
      "applicant": 4476,
      "famili": 4477,
      "foundation": 4478,
      "wed": 4479,
      "inflation": 4480,
      "railway": 4481,
      "cert": 4482,
      "label": 4483,
      "removed": 4484,
      "acking": 4485,
      "smaller": 4486,
      "science": 4487,
      "incorporated": 4488,
      "basically": 4489,
      "ali": 4490,
      "trave": 4491,
      "reservations": 4492,
      "wording": 4493,
      "applications": 4494,
      "adjustment": 4495,
      "electoral": 4496,
      "prohib": 4497,
      "ication": 4498,
      "persu": 4499,
      "restore": 4500,
      "citizenship": 4501,
      "targeted": 4502,
      "disabled": 4503,
      "negotiate": 4504,
      "convict": 4505,
      "digital": 4506,
      "apo": 4507,
      "hat": 4508,
      "falls": 4509,
      "plus": 4510,
      "mu": 4511,
      "scrut": 4512,
      "morocco": 4513,
      "tical": 4514,
      "army": 4515,
      "discipl": 4516,
      "doct": 4517,
      "obtained": 4518,
      "reiterate": 4519,
      "intervene": 4520,
      "ball": 4521,
      "millenn": 4522,
      "presenting": 4523,
      "lasting": 4524,
      "nearly": 4525,
      "drafting": 4526,
      "welcomes": 4527,
      "turned": 4528,
      "utmost": 4529,
      "marketing": 4530,
      "consequence": 4531,
      "religion": 4532,
      "flu": 4533,
      "mob": 4534,
      "maastr": 4535,
      "surround": 4536,
      "progressive": 4537,
      "ception": 4538,
      "graphic": 4539,
      "maastricht": 4540,
      "stic": 4541,
      "ria": 4542,
      "afraid": 4543,
      "male": 4544,
      "sched": 4545,
      "combined": 4546,
      "anticip": 4547,
      "sought": 4548,
      "pleasure": 4549,
      "exc": 4550,
      "bureaucratic": 4551,
      "shif": 4552,
      "fairly": 4553,
      "yugoslavia": 4554,
      "excluded": 4555,
      "sharing": 4556,
      "anda": 4557,
      "shr": 4558,
      "regardless": 4559,
      "dumping": 4560,
      "deserve": 4561,
      "chi": 4562,
      "tibet": 4563,
      "deeply": 4564,
      "employers": 4565,
      "secret": 4566,
      "importantly": 4567,
      "congratulations": 4568,
      "channel": 4569,
      "banking": 4570,
      "roads": 4571,
      "buy": 4572,
      "entail": 4573,
      "incentives": 4574,
      "gl": 4575,
      "healthcare": 4576,
      "pain": 4577,
      "millennium": 4578,
      "alcohol": 4579,
      "lie": 4580,
      "connected": 4581,
      "declarations": 4582,
      "enlar": 4583,
      "intens": 4584,
      "forcing": 4585,
      "organization": 4586,
      "inational": 4587,
      "outstanding": 4588,
      "burma": 4589,
      "mobile": 4590,
      "financed": 4591,
      "slovakia": 4592,
      "fat": 4593,
      "credible": 4594,
      "exceptional": 4595,
      "liberties": 4596,
      "arer": 4597,
      "berlin": 4598,
      "checks": 4599,
      "jur": 4600,
      "brid": 4601,
      "derog": 4602,
      "track": 4603,
      "preparations": 4604,
      "eyes": 4605,
      "domin": 4606,
      "cancer": 4607,
      "jointly": 4608,
      "creates": 4609,
      "transform": 4610,
      "register": 4611,
      "transactions": 4612,
      "alongside": 4613,
      "suggestions": 4614,
      "complaints": 4615,
      "shortcomings": 4616,
      "ficial": 4617,
      "shoc": 4618,
      "ambition": 4619,
      "fre": 4620,
      "wage": 4621,
      "regulate": 4622,
      "multinational": 4623,
      "opar": 4624,
      "hypo": 4625,
      "revised": 4626,
      "liability": 4627,
      "eliminate": 4628,
      "matically": 4629,
      "reserve": 4630,
      "nut": 4631,
      "hardly": 4632,
      "kur": 4633,
      "sof": 4634,
      "placing": 4635,
      "straight": 4636,
      "sv": 4637,
      "nine": 4638,
      "educational": 4639,
      "economically": 4640,
      "tonnes": 4641,
      "reflects": 4642,
      "weaken": 4643,
      "nar": 4644,
      "chapter": 4645,
      "executive": 4646,
      "terrible": 4647,
      "usal": 4648,
      "fresh": 4649,
      "dos": 4650,
      "aug": 4651,
      "delays": 4652,
      "enhanced": 4653,
      "imate": 4654,
      "supervisory": 4655,
      "familiar": 4656,
      "foundations": 4657,
      "periods": 4658,
      "drafted": 4659,
      "candidates": 4660,
      "repeatedly": 4661,
      "bomb": 4662,
      "showing": 4663,
      "telecommunications": 4664,
      "punish": 4665,
      "stipul": 4666,
      "justify": 4667,
      "airports": 4668,
      "expensive": 4669,
      "allocation": 4670,
      "fewer": 4671,
      "marine": 4672,
      "jeopar": 4673,
      "immun": 4674,
      "buildings": 4675,
      "wides": 4676,
      "albania": 4677,
      "err": 4678,
      "widespread": 4679,
      "qualifications": 4680,
      "drivers": 4681,
      "tackling": 4682,
      "mits": 4683,
      "organiz": 4684,
      "secution": 4685,
      "ethical": 4686,
      "extraordinary": 4687,
      "sis": 4688,
      "differ": 4689,
      "baron": 4690,
      "jection": 4691,
      "shame": 4692,
      "funded": 4693,
      "penalties": 4694,
      "students": 4695,
      "conventions": 4696,
      "rating": 4697,
      "soph": 4698,
      "trend": 4699,
      "itative": 4700,
      "unemployed": 4701,
      "broader": 4702,
      "surprised": 4703,
      "resulted": 4704,
      "losses": 4705,
      "location": 4706,
      "paralle": 4707,
      "map": 4708,
      "tribute": 4709,
      "expressing": 4710,
      "below": 4711,
      "lessons": 4712,
      "kinds": 4713,
      "deadline": 4714,
      "bing": 4715,
      "fleet": 4716,
      "announce": 4717,
      "underline": 4718,
      "lobby": 4719,
      "physical": 4720,
      "tough": 4721,
      "accur": 4722,
      "parents": 4723,
      "severe": 4724,
      "puts": 4725,
      "expense": 4726,
      "ches": 4727,
      "mold": 4728,
      "macedonia": 4729,
      "elderly": 4730,
      "ambigu": 4731,
      "echo": 4732,
      "ague": 4733,
      "redund": 4734,
      "bot": 4735,
      "closure": 4736,
      "explained": 4737,
      "stuffs": 4738,
      "unit": 4739,
      "popular": 4740,
      "vacc": 4741,
      "assum": 4742,
      "rific": 4743,
      "aircraft": 4744,
      "relate": 4745,
      "gaza": 4746,
      "broadcast": 4747,
      "inquiry": 4748,
      "larger": 4749,
      "suspended": 4750,
      "insufficient": 4751,
      "covers": 4752,
      "minim": 4753,
      "quota": 4754,
      "territories": 4755,
      "picture": 4756,
      "shape": 4757,
      "alar": 4758,
      "abolition": 4759,
      "preserve": 4760,
      "fronti": 4761,
      "oring": 4762,
      "gi": 4763,
      "nord": 4764,
      "gradually": 4765,
      "fifteen": 4766,
      "juris": 4767,
      "calcul": 4768,
      "warmly": 4769,
      "stance": 4770,
      "spl": 4771,
      "trial": 4772,
      "babwe": 4773,
      "zimbabwe": 4774,
      "alling": 4775,
      "procure": 4776,
      "ecological": 4777,
      "condemned": 4778,
      "hazard": 4779,
      "iable": 4780,
      "english": 4781,
      "widely": 4782,
      "rob": 4783,
      "occurred": 4784,
      "ane": 4785,
      "fying": 4786,
      "inj": 4787,
      "ns": 4788,
      "civilian": 4789,
      "dar": 4790,
      "iety": 4791,
      "wal": 4792,
      "rising": 4793,
      "postal": 4794,
      "similarly": 4795,
      "became": 4796,
      "indicators": 4797,
      "wo": 4798,
      "pil": 4799,
      "tom": 4800,
      "phar": 4801,
      "scandal": 4802,
      "uding": 4803,
      "undermine": 4804,
      "gorous": 4805,
      "uncertainty": 4806,
      "accompan": 4807,
      "viable": 4808,
      "lithuania": 4809,
      "shares": 4810,
      "sudan": 4811,
      "lebr": 4812,
      "sier": 4813,
      "causing": 4814,
      "geneva": 4815,
      "unfortunate": 4816,
      "ski": 4817,
      "informal": 4818,
      "generations": 4819,
      "roots": 4820,
      "battle": 4821,
      "indicate": 4822,
      "socio": 4823,
      "unanimous": 4824,
      "journalists": 4825,
      "raw": 4826,
      "freely": 4827,
      "outset": 4828,
      "offering": 4829,
      "finances": 4830,
      "eec": 4831,
      "braz": 4832,
      "frequently": 4833,
      "enthus": 4834,
      "liby": 4835,
      "islamic": 4836,
      "recital": 4837,
      "coordinate": 4838,
      "collaboration": 4839,
      "deaths": 4840,
      "enthusi": 4841,
      "accompanied": 4842,
      "hour": 4843,
      "agrees": 4844,
      "terrorists": 4845,
      "receiving": 4846,
      "celebr": 4847,
      "pursuant": 4848,
      "remed": 4849,
      "ferences": 4850,
      "accessible": 4851,
      "populations": 4852,
      "entrepreneur": 4853,
      "award": 4854,
      "division": 4855,
      "approximately": 4856,
      "weakness": 4857,
      "revolution": 4858,
      "emu": 4859,
      "reported": 4860,
      "moldo": 4861,
      "tam": 4862,
      "leban": 4863,
      "undertake": 4864,
      "demographic": 4865,
      "began": 4866,
      "demonstrates": 4867,
      "presentation": 4868,
      "associations": 4869,
      "erad": 4870,
      "verh": 4871,
      "interim": 4872,
      "cape": 4873,
      "tang": 4874,
      "noise": 4875,
      "plat": 4876,
      "equival": 4877,
      "arising": 4878,
      "collap": 4879,
      "palestinians": 4880,
      "culation": 4881,
      "ignore": 4882,
      "micro": 4883,
      "endeavour": 4884,
      "genetically": 4885,
      "notice": 4886,
      "attend": 4887,
      "soviet": 4888,
      "comparison": 4889,
      "listened": 4890,
      "necessity": 4891,
      "iced": 4892,
      "exerc": 4893,
      "conservation": 4894,
      "engaged": 4895,
      "counterfe": 4896,
      "strike": 4897,
      "unique": 4898,
      "forests": 4899,
      "canada": 4900,
      "organise": 4901,
      "suggestion": 4902,
      "pharmac": 4903,
      "couple": 4904,
      "transit": 4905,
      "anni": 4906,
      "procurement": 4907,
      "shortly": 4908,
      "abstained": 4909,
      "forgot": 4910,
      "declare": 4911,
      "contacts": 4912,
      "coherence": 4913,
      "choices": 4914,
      "observed": 4915,
      "decre": 4916,
      "xen": 4917,
      "ensible": 4918,
      "harmonised": 4919,
      "tile": 4920,
      "igc": 4921,
      "hab": 4922,
      "collection": 4923,
      "alger": 4924,
      "clearer": 4925,
      "supplies": 4926,
      "blame": 4927,
      "prevented": 4928,
      "appeared": 4929,
      "birth": 4930,
      "respecting": 4931,
      "semin": 4932,
      "nish": 4933,
      "pectives": 4934,
      "perspectives": 4935,
      "personnel": 4936,
      "brazil": 4937,
      "depri": 4938,
      "ingu": 4939,
      "pere": 4940,
      "revenue": 4941,
      "observation": 4942,
      "killed": 4943,
      "americans": 4944,
      "wind": 4945,
      "persist": 4946,
      "efficiently": 4947,
      "beneficial": 4948,
      "authorisation": 4949,
      "olaf": 4950,
      "vit": 4951,
      "gies": 4952,
      "plays": 4953,
      "sending": 4954,
      "defining": 4955,
      "privat": 4956,
      "vehicle": 4957,
      "horiz": 4958,
      "oul": 4959,
      "rout": 4960,
      "timely": 4961,
      "promoted": 4962,
      "covering": 4963,
      "lond": 4964,
      "istical": 4965,
      "pursued": 4966,
      "irregular": 4967,
      "atell": 4968,
      "pping": 4969,
      "consistency": 4970,
      "struggle": 4971,
      "hopefully": 4972,
      "conditional": 4973,
      "directed": 4974,
      "emerging": 4975,
      "london": 4976,
      "congo": 4977,
      "ligent": 4978,
      "euros": 4979,
      "illance": 4980,
      "fisch": 4981,
      "sincerely": 4982,
      "surveillance": 4983,
      "divided": 4984,
      "clarification": 4985,
      "moved": 4986,
      "requis": 4987,
      "kar": 4988,
      "director": 4989,
      "talked": 4990,
      "crops": 4991,
      "unions": 4992,
      "foster": 4993,
      "strictly": 4994,
      "enlarged": 4995,
      "parallel": 4996,
      "mere": 4997,
      "subsequently": 4998,
      "comput": 4999,
      "ws": 5000,
      "cha": 5001,
      "judgment": 5002,
      "reveal": 5003,
      "outer": 5004,
      "aks": 5005,
      "unanimity": 5006,
      "soil": 5007,
      "admitted": 5008,
      "solved": 5009,
      "rog": 5010,
      "grad": 5011,
      "defending": 5012,
      "string": 5013,
      "pic": 5014,
      "yard": 5015,
      "memor": 5016,
      "simplify": 5017,
      "loans": 5018,
      "hus": 5019,
      "rejection": 5020,
      "dev": 5021,
      "contam": 5022,
      "drafts": 5023,
      "iring": 5024,
      "serb": 5025,
      "explanations": 5026,
      "distinction": 5027,
      "ika": 5028,
      "items": 5029,
      "percentage": 5030,
      "keen": 5031,
      "exclusively": 5032,
      "signing": 5033,
      "controversi": 5034,
      "congratulating": 5035,
      "blue": 5036,
      "bow": 5037,
      "refuse": 5038,
      "mod": 5039,
      "tration": 5040,
      "liberals": 5041,
      "campaigns": 5042,
      "oman": 5043,
      "ifies": 5044,
      "stree": 5045,
      "asser": 5046,
      "ney": 5047,
      "institute": 5048,
      "newsp": 5049,
      "newspap": 5050,
      "jurisdict": 5051,
      "image": 5052,
      "disappointed": 5053,
      "sites": 5054,
      "begun": 5055,
      "acted": 5056,
      "victim": 5057,
      "dream": 5058,
      "pressing": 5059,
      "multiannual": 5060,
      "inhabit": 5061,
      "failing": 5062,
      "controversial": 5063,
      "chechn": 5064,
      "sar": 5065,
      "xenopho": 5066,
      "warrant": 5067,
      "tangible": 5068,
      "troops": 5069,
      "acceptance": 5070,
      "distingu": 5071,
      "chechnya": 5072,
      "pressive": 5073,
      "neu": 5074,
      "discre": 5075,
      "disagree": 5076,
      "enshr": 5077,
      "flee": 5078,
      "route": 5079,
      "egypt": 5080,
      "stations": 5081,
      "qualities": 5082,
      "natives": 5083,
      "looks": 5084,
      "reflection": 5085,
      "experiencing": 5086,
      "indones": 5087,
      "helpful": 5088,
      "desirable": 5089,
      "llar": 5090,
      "substanti": 5091,
      "mountain": 5092,
      "load": 5093,
      "reconciliation": 5094,
      "hoped": 5095,
      "norm": 5096,
      "threatened": 5097,
      "consulted": 5098,
      "woman": 5099,
      "joining": 5100,
      "prosecut": 5101,
      "sales": 5102,
      "brok": 5103,
      "rem": 5104,
      "ug": 5105,
      "managing": 5106,
      "philo": 5107,
      "born": 5108,
      "intoler": 5109,
      "chemicals": 5110,
      "prize": 5111,
      "investors": 5112,
      "categories": 5113,
      "answered": 5114,
      "missing": 5115,
      "imposing": 5116,
      "affirm": 5117,
      "ruling": 5118,
      "alternatives": 5119,
      "owner": 5120,
      "insu": 5121,
      "plural": 5122,
      "ket": 5123,
      "yourself": 5124,
      "mandatory": 5125,
      "lacking": 5126,
      "impet": 5127,
      "iger": 5128,
      "forgotten": 5129,
      "finnish": 5130,
      "invite": 5131,
      "cutting": 5132,
      "die": 5133,
      "web": 5134,
      "occupation": 5135,
      "adverse": 5136,
      "impetus": 5137,
      "gmos": 5138,
      "limin": 5139,
      "confident": 5140,
      "coastal": 5141,
      "celer": 5142,
      "partial": 5143,
      "outermost": 5144,
      "traditions": 5145,
      "blin": 5146,
      "acceler": 5147,
      "gross": 5148,
      "precaution": 5149,
      "sud": 5150,
      "permitted": 5151,
      "adequ": 5152,
      "examination": 5153,
      "replaced": 5154,
      "proli": 5155,
      "confusion": 5156,
      "moldova": 5157,
      "integrity": 5158,
      "crimin": 5159,
      "preventive": 5160,
      "diox": 5161,
      "gam": 5162,
      "soever": 5163,
      "usually": 5164,
      "sink": 5165,
      "absur": 5166,
      "dramatic": 5167,
      "joined": 5168,
      "achievements": 5169,
      "benefici": 5170,
      "rare": 5171,
      "railways": 5172,
      "atten": 5173,
      "palestine": 5174,
      "horizon": 5175,
      "frid": 5176,
      "systematic": 5177,
      "showed": 5178,
      "highlights": 5179,
      "characteristics": 5180,
      "murder": 5181,
      "compete": 5182,
      "pin": 5183,
      "prelimin": 5184,
      "vation": 5185,
      "refused": 5186,
      "assessments": 5187,
      "intelligent": 5188,
      "exempt": 5189,
      "prolifer": 5190,
      "disappear": 5191,
      "malta": 5192,
      "nationally": 5193,
      "absurd": 5194,
      "asing": 5195,
      "resistance": 5196,
      "yer": 5197,
      "refugee": 5198,
      "underlying": 5199,
      "contributing": 5200,
      "copy": 5201,
      "ideal": 5202,
      "constra": 5203,
      "integrate": 5204,
      "advocate": 5205,
      "eg": 5206,
      "notes": 5207,
      "procedural": 5208,
      "iles": 5209,
      "raises": 5210,
      "whatsoever": 5211,
      "dependence": 5212,
      "dish": 5213,
      "stone": 5214,
      "bert": 5215,
      "exchanges": 5216,
      "preliminary": 5217,
      "site": 5218,
      "resource": 5219,
      "violent": 5220,
      "flows": 5221,
      "vigil": 5222,
      "freight": 5223,
      "conven": 5224,
      "mem": 5225,
      "organizations": 5226,
      "elig": 5227,
      "sell": 5228,
      "hosp": 5229,
      "farms": 5230,
      "motiv": 5231,
      "estimated": 5232,
      "neutr": 5233,
      "notably": 5234,
      "colon": 5235,
      "textile": 5236,
      "observers": 5237,
      "tering": 5238,
      "expan": 5239,
      "residence": 5240,
      "migrants": 5241,
      "accountability": 5242,
      "book": 5243,
      "slightly": 5244,
      "scrutiny": 5245,
      "cultures": 5246,
      "ashton": 5247,
      "holds": 5248,
      "mou": 5249,
      "ageing": 5250,
      "pone": 5251,
      "vary": 5252,
      "feas": 5253,
      "unification": 5254,
      "unilateral": 5255,
      "dispar": 5256,
      "advanced": 5257,
      "custom": 5258,
      "pilot": 5259,
      "sacrific": 5260,
      "reti": 5261,
      "concession": 5262,
      "title": 5263,
      "ambitions": 5264,
      "postpone": 5265,
      "reporting": 5266,
      "representing": 5267,
      "nom": 5268,
      "safeguarding": 5269,
      "housing": 5270,
      "equivalent": 5271,
      "universities": 5272,
      "ites": 5273,
      "justification": 5274,
      "contrast": 5275,
      "band": 5276,
      "approaches": 5277,
      "expansion": 5278,
      "ield": 5279,
      "older": 5280,
      "friday": 5281,
      "participating": 5282,
      "bid": 5283,
      "envisaged": 5284,
      "resumed": 5285,
      "jeopardis": 5286,
      "mant": 5287,
      "tunisia": 5288,
      "ano": 5289,
      "concentration": 5290,
      "restrictive": 5291,
      "drop": 5292,
      "arbit": 5293,
      "eventually": 5294,
      "banned": 5295,
      "functions": 5296,
      "stick": 5297,
      "itably": 5298,
      "profound": 5299,
      "imported": 5300,
      "philosoph": 5301,
      "investigations": 5302,
      "distributed": 5303,
      "dublin": 5304,
      "signs": 5305,
      "ranging": 5306,
      "sympath": 5307,
      "oth": 5308,
      "consent": 5309,
      "exceptions": 5310,
      "destroyed": 5311,
      "jurisdiction": 5312,
      "ado": 5313,
      "scen": 5314,
      "petr": 5315,
      "observe": 5316,
      "rum": 5317,
      "fixed": 5318,
      "bush": 5319,
      "imes": 5320,
      "thousand": 5321,
      "listening": 5322,
      "disputes": 5323,
      "balances": 5324,
      "surrounding": 5325,
      "predict": 5326,
      "humanity": 5327,
      "providers": 5328,
      "subsequent": 5329,
      "reductions": 5330,
      "handling": 5331,
      "movements": 5332,
      "modernisation": 5333,
      "sadly": 5334,
      "inside": 5335,
      "tolerance": 5336,
      "atom": 5337,
      "infrastructures": 5338,
      "prompt": 5339,
      "proliferation": 5340,
      "regularly": 5341,
      "fuels": 5342,
      "recycl": 5343,
      "assurance": 5344,
      "mexic": 5345,
      "continuation": 5346,
      "libya": 5347,
      "unlike": 5348,
      "proves": 5349,
      "izing": 5350,
      "gained": 5351,
      "seekers": 5352,
      "versary": 5353,
      "august": 5354,
      "losing": 5355,
      "perpetr": 5356,
      "fears": 5357,
      "oning": 5358,
      "compromises": 5359,
      "commerce": 5360,
      "blind": 5361,
      "mistakes": 5362,
      "experiences": 5363,
      "ratify": 5364,
      "error": 5365,
      "dog": 5366,
      "sudden": 5367,
      "mail": 5368,
      "accounting": 5369,
      "abuses": 5370,
      "infringement": 5371,
      "conviction": 5372,
      "ato": 5373,
      "devast": 5374,
      "phone": 5375,
      "ofuel": 5376,
      "mines": 5377,
      "assets": 5378,
      "proven": 5379,
      "organic": 5380,
      "install": 5381,
      "inhabitants": 5382,
      "convince": 5383,
      "iers": 5384,
      "tric": 5385,
      "monito": 5386,
      "drive": 5387,
      "attached": 5388,
      "monitored": 5389,
      "monday": 5390,
      "containing": 5391,
      "apparently": 5392,
      "privileg": 5393,
      "alde": 5394,
      "syria": 5395,
      "pursuing": 5396,
      "incorporate": 5397,
      "arbitr": 5398,
      "cooper": 5399,
      "delegations": 5400,
      "fourthly": 5401,
      "liked": 5402,
      "accepting": 5403,
      "resolving": 5404,
      "abroad": 5405,
      "offices": 5406,
      "nordic": 5407,
      "stringent": 5408,
      "hne": 5409,
      "fails": 5410,
      "withdrawal": 5411,
      "decentral": 5412,
      "regimes": 5413,
      "dangers": 5414,
      "stakeholders": 5415,
      "fires": 5416,
      "gests": 5417,
      "suggests": 5418,
      "acknowledged": 5419,
      "criminals": 5420,
      "ancy": 5421,
      "initially": 5422,
      "biofuel": 5423,
      "models": 5424,
      "liers": 5425,
      "beit": 5426,
      "lor": 5427,
      "yle": 5428,
      "brut": 5429,
      "sentence": 5430,
      "stabilisation": 5431,
      "facility": 5432,
      "stages": 5433,
      "patten": 5434,
      "vina": 5435,
      "prop": 5436,
      "maybe": 5437,
      "visual": 5438,
      "eib": 5439,
      "female": 5440,
      "engine": 5441,
      "consolidation": 5442,
      "holm": 5443,
      "chur": 5444,
      "sadd": 5445,
      "det": 5446,
      "umb": 5447,
      "differenti": 5448,
      "conve": 5449,
      "privacy": 5450,
      "paragraphs": 5451,
      "expertise": 5452,
      "wholehear": 5453,
      "wan": 5454,
      "secretar": 5455,
      "registration": 5456,
      "ecofin": 5457,
      "visited": 5458,
      "lifelong": 5459,
      "partnerships": 5460,
      "marking": 5461,
      "train": 5462,
      "solana": 5463,
      "geno": 5464,
      "doha": 5465,
      "airport": 5466,
      "distance": 5467,
      "anniversary": 5468,
      "precautionary": 5469,
      "umn": 5470,
      "federation": 5471,
      "accurate": 5472,
      "wages": 5473,
      "zen": 5474,
      "decline": 5475,
      "borne": 5476,
      "claimed": 5477,
      "defe": 5478,
      "meanti": 5479,
      "postpon": 5480,
      "football": 5481,
      "meantime": 5482,
      "actors": 5483,
      "statistical": 5484,
      "tonight": 5485,
      "programming": 5486,
      "rer": 5487,
      "outlined": 5488,
      "falling": 5489,
      "incentive": 5490,
      "albeit": 5491,
      "cot": 5492,
      "cred": 5493,
      "mas": 5494,
      "veget": 5495,
      "astro": 5496,
      "pharmaceu": 5497,
      "invited": 5498,
      "variety": 5499,
      "gradual": 5500,
      "examining": 5501,
      "fortunately": 5502,
      "eugen": 5503,
      "autonomy": 5504,
      "iat": 5505,
      "satell": 5506,
      "ceiling": 5507,
      "ignored": 5508,
      "wednes": 5509,
      "names": 5510,
      "pharmaceutical": 5511,
      "bat": 5512,
      "enance": 5513,
      "fault": 5514,
      "recognises": 5515,
      "focusing": 5516,
      "proportionate": 5517,
      "cia": 5518,
      "arrive": 5519,
      "niger": 5520,
      "father": 5521,
      "prerequis": 5522,
      "visible": 5523,
      "fash": 5524,
      "criterion": 5525,
      "backing": 5526,
      "era": 5527,
      "construct": 5528,
      "entering": 5529,
      "iraqi": 5530,
      "ured": 5531,
      "visas": 5532,
      "virtually": 5533,
      "wednesday": 5534,
      "strom": 5535,
      "antly": 5536,
      "iss": 5537,
      "features": 5538,
      "petition": 5539,
      "lebanon": 5540,
      "fashion": 5541,
      "scientists": 5542,
      "catastro": 5543,
      "mach": 5544,
      "excuse": 5545,
      "uries": 5546,
      "voters": 5547,
      "trace": 5548,
      "university": 5549,
      "pas": 5550,
      "lingu": 5551,
      "learned": 5552,
      "safeguards": 5553,
      "inspection": 5554,
      "evaluate": 5555,
      "concludes": 5556,
      "pipe": 5557,
      "ala": 5558,
      "maint": 5559,
      "slovenia": 5560,
      "upd": 5561,
      "match": 5562,
      "corresponding": 5563,
      "slaugh": 5564,
      "dossier": 5565,
      "osce": 5566,
      "maintenance": 5567,
      "lap": 5568,
      "ni": 5569,
      "ctic": 5570,
      "util": 5571,
      "finish": 5572,
      "false": 5573,
      "cultiv": 5574,
      "recipro": 5575,
      "composition": 5576,
      "forecast": 5577,
      "cos": 5578,
      "authorised": 5579,
      "missions": 5580,
      "immunity": 5581,
      "pestic": 5582,
      "govina": 5583,
      "sincere": 5584,
      "neglect": 5585,
      "indication": 5586,
      "denied": 5587,
      "sympathy": 5588,
      "haust": 5589,
      "pressed": 5590,
      "sections": 5591,
      "endorsed": 5592,
      "exhaust": 5593,
      "everywhere": 5594,
      "prag": 5595,
      "hospital": 5596,
      "select": 5597,
      "colom": 5598,
      "renewed": 5599,
      "oting": 5600,
      "irrespective": 5601,
      "luc": 5602,
      "sports": 5603,
      "ases": 5604,
      "helps": 5605,
      "herze": 5606,
      "observations": 5607,
      "substantially": 5608,
      "feature": 5609,
      "shipping": 5610,
      "medicinal": 5611,
      "dete": 5612,
      "pretext": 5613,
      "sett": 5614,
      "definitive": 5615,
      "cope": 5616,
      "completion": 5617,
      "enterprise": 5618,
      "badly": 5619,
      "aspir": 5620,
      "verheugen": 5621,
      "herzegovina": 5622,
      "pens": 5623,
      "atmo": 5624,
      "storage": 5625,
      "fate": 5626,
      "dens": 5627,
      "inspect": 5628,
      "vocational": 5629,
      "fulfilled": 5630,
      "hazardous": 5631,
      "floods": 5632,
      "confront": 5633,
      "wherever": 5634,
      "released": 5635,
      "consistently": 5636,
      "consultations": 5637,
      "wash": 5638,
      "smooth": 5639,
      "grass": 5640,
      "whel": 5641,
      "damaging": 5642,
      "ert": 5643,
      "zy": 5644,
      "audio": 5645,
      "adequately": 5646,
      "dismant": 5647,
      "sale": 5648,
      "dictatorship": 5649,
      "licate": 5650,
      "overwhel": 5651,
      "collapse": 5652,
      "ari": 5653,
      "argue": 5654,
      "essence": 5655,
      "disastr": 5656,
      "corner": 5657,
      "testing": 5658,
      "schedul": 5659,
      "devoted": 5660,
      "game": 5661,
      "enables": 5662,
      "ulf": 5663,
      "deficits": 5664,
      "democratically": 5665,
      "prud": 5666,
      "laying": 5667,
      "ura": 5668,
      "reper": 5669,
      "presidential": 5670,
      "productivity": 5671,
      "clauses": 5672,
      "avoided": 5673,
      "leaves": 5674,
      "advantaged": 5675,
      "destroy": 5676,
      "retire": 5677,
      "diver": 5678,
      "ligence": 5679,
      "lists": 5680,
      "volume": 5681,
      "cracies": 5682,
      "sixth": 5683,
      "ensured": 5684,
      "reserves": 5685,
      "autumn": 5686,
      "cycle": 5687,
      "generate": 5688,
      "emerged": 5689,
      "tackled": 5690,
      "steel": 5691,
      "dispens": 5692,
      "ministerial": 5693,
      "helsink": 5694,
      "scotland": 5695,
      "helsinki": 5696,
      "xenophobia": 5697,
      "scre": 5698,
      "mine": 5699,
      "foodstuffs": 5700,
      "disastrous": 5701,
      "fought": 5702,
      "sums": 5703,
      "disabilities": 5704,
      "meets": 5705,
      "pays": 5706,
      "fischler": 5707,
      "rever": 5708,
      "imperative": 5709,
      "fundamentally": 5710,
      "resort": 5711,
      "neo": 5712,
      "heral": 5713,
      "repression": 5714,
      "dollar": 5715,
      "enabled": 5716,
      "galile": 5717,
      "rigorous": 5718,
      "conservative": 5719,
      "pion": 5720,
      "wid": 5721,
      "cher": 5722,
      "mature": 5723,
      "schul": 5724,
      "ony": 5725,
      "isen": 5726,
      "simplified": 5727,
      "arrived": 5728,
      "schulz": 5729,
      "atically": 5730,
      "prescri": 5731,
      "santer": 5732,
      "exemption": 5733,
      "inevitably": 5734,
      "democratisation": 5735,
      "pel": 5736,
      "ques": 5737,
      "foods": 5738,
      "adapted": 5739,
      "itology": 5740,
      "zerland": 5741,
      "switzerland": 5742,
      "responses": 5743,
      "galileo": 5744,
      "advis": 5745,
      "enshrined": 5746,
      "ownership": 5747,
      "repercus": 5748,
      "psy": 5749,
      "estonia": 5750,
      "abort": 5751,
      "struck": 5752,
      "principal": 5753,
      "shift": 5754,
      "tampere": 5755,
      "vy": 5756,
      "disadvantaged": 5757,
      "desired": 5758,
      "recommended": 5759,
      "comprehensible": 5760,
      "explicitly": 5761,
      "ums": 5762,
      "repercussions": 5763,
      "attain": 5764,
      "consolidate": 5765,
      "attractive": 5766,
      "computer": 5767,
      "accused": 5768,
      "notion": 5769,
      "irregularities": 5770,
      "detention": 5771,
      "deploy": 5772,
      "inspections": 5773,
      "dele": 5774,
      "offences": 5775,
      "jer": 5776,
      "anx": 5777,
      "planet": 5778,
      "posts": 5779,
      "linguistic": 5780,
      "soldiers": 5781,
      "flights": 5782,
      "presents": 5783,
      "socially": 5784,
      "monopoly": 5785,
      "discipline": 5786,
      "story": 5787,
      "college": 5788,
      "stricter": 5789,
      "marginal": 5790,
      "frankly": 5791,
      "throw": 5792,
      "idential": 5793,
      "stockholm": 5794,
      "delive": 5795,
      "initiated": 5796,
      "zero": 5797,
      "iro": 5798,
      "incredi": 5799,
      "deny": 5800,
      "recru": 5801,
      "grave": 5802,
      "delivered": 5803,
      "icated": 5804,
      "investigate": 5805,
      "sees": 5806,
      "mep": 5807,
      "hr": 5808,
      "fallen": 5809,
      "insp": 5810,
      "internationally": 5811,
      "speculation": 5812,
      "exploit": 5813,
      "removal": 5814,
      "passing": 5815,
      "closing": 5816,
      "innocent": 5817,
      "caucas": 5818,
      "adding": 5819,
      "twice": 5820,
      "homes": 5821,
      "transferred": 5822,
      "preparatory": 5823,
      "iceland": 5824,
      "compli": 5825,
      "broadly": 5826,
      "hunger": 5827,
      "originally": 5828,
      "mir": 5829,
      "assessing": 5830,
      "stal": 5831,
      "ulous": 5832,
      "tuna": 5833,
      "silence": 5834,
      "mouth": 5835,
      "manif": 5836,
      "whenever": 5837,
      "platform": 5838,
      "tan": 5839,
      "eration": 5840,
      "berg": 5841,
      "surprise": 5842,
      "narrow": 5843,
      "gri": 5844,
      "seat": 5845,
      "logic": 5846,
      "stitution": 5847,
      "stry": 5848,
      "donors": 5849,
      "pace": 5850,
      "onto": 5851,
      "perip": 5852,
      "fran": 5853,
      "latvia": 5854,
      "detriment": 5855,
      "baroness": 5856,
      "lym": 5857,
      "cypri": 5858,
      "biofuels": 5859,
      "councils": 5860,
      "topical": 5861,
      "exposed": 5862,
      "handed": 5863,
      "participants": 5864,
      "scar": 5865,
      "alia": 5866,
      "inequalities": 5867,
      "researchers": 5868,
      "frontex": 5869,
      "assured": 5870,
      "quarters": 5871,
      "forestry": 5872,
      "corporate": 5873,
      "objections": 5874,
      "travelling": 5875,
      "praise": 5876,
      "component": 5877,
      "errors": 5878,
      "horizontal": 5879,
      "ration": 5880,
      "assessed": 5881,
      "olym": 5882,
      "tren": 5883,
      "congress": 5884,
      "premi": 5885,
      "bases": 5886,
      "alleged": 5887,
      "squ": 5888,
      "bench": 5889,
      "race": 5890,
      "syn": 5891,
      "practically": 5892,
      "seventh": 5893,
      "cash": 5894,
      "interpret": 5895,
      "modest": 5896,
      "transfers": 5897,
      "findings": 5898,
      "smoking": 5899,
      "cns": 5900,
      "minds": 5901,
      "enna": 5902,
      "shop": 5903,
      "interference": 5904,
      "frust": 5905,
      "agg": 5906,
      "shed": 5907,
      "dia": 5908,
      "comparable": 5909,
      "tac": 5910,
      "harmonise": 5911,
      "driven": 5912,
      "occupied": 5913,
      "nally": 5914,
      "producer": 5915,
      "grade": 5916,
      "suspic": 5917,
      "constraints": 5918,
      "mexico": 5919,
      "scept": 5920,
      "tape": 5921,
      "openly": 5922,
      "incidentally": 5923,
      "alarming": 5924,
      "pul": 5925,
      "trem": 5926,
      "dear": 5927,
      "unde": 5928,
      "makers": 5929,
      "dg": 5930,
      "morator": 5931,
      "humane": 5932,
      "armen": 5933,
      "cold": 5934,
      "routes": 5935,
      "accommod": 5936,
      "aqu": 5937,
      "arma": 5938,
      "tempt": 5939,
      "ngl": 5940,
      "pillars": 5941,
      "normally": 5942,
      "stating": 5943,
      "fragment": 5944,
      "confeder": 5945,
      "satellite": 5946,
      "los": 5947,
      "usd": 5948,
      "deciding": 5949,
      "constituency": 5950,
      "deem": 5951,
      "democracies": 5952,
      "concessions": 5953,
      "recycling": 5954,
      "overwhelming": 5955,
      "algeria": 5956,
      "coordinating": 5957,
      "aca": 5958,
      "grand": 5959,
      "wished": 5960,
      "potentially": 5961,
      "orientation": 5962,
      "iranian": 5963,
      "fing": 5964,
      "cfsp": 5965,
      "obstacle": 5966,
      "mort": 5967,
      "vienna": 5968,
      "decade": 5969,
      "symbol": 5970,
      "automatically": 5971,
      "wholeheartedly": 5972,
      "guil": 5973,
      "appalling": 5974,
      "tene": 5975,
      "reinforced": 5976,
      "comitology": 5977,
      "systematically": 5978,
      "telling": 5979,
      "punishment": 5980,
      "draftsman": 5981,
      "asion": 5982,
      "banana": 5983,
      "pensioners": 5984,
      "desper": 5985,
      "appointing": 5986,
      "ker": 5987,
      "som": 5988,
      "von": 5989,
      "civilians": 5990,
      "inappropriate": 5991,
      "transposition": 5992,
      "serves": 5993,
      "audiovisual": 5994,
      "tremend": 5995,
      "veter": 5996,
      "recorded": 5997,
      "tai": 5998,
      "hur": 5999,
      "mainstream": 6000,
      "besides": 6001,
      "romanian": 6002,
      "cofin": 6003,
      "minent": 6004,
      "solving": 6005,
      "applause": 6006,
      "prejud": 6007,
      "incidents": 6008,
      "criticisms": 6009,
      "arrangement": 6010,
      "iet": 6011,
      "references": 6012,
      "camps": 6013,
      "patient": 6014,
      "retirement": 6015,
      "toxic": 6016,
      "imperial": 6017,
      "grace": 6018,
      "stresses": 6019,
      "embargo": 6020,
      "anen": 6021,
      "erb": 6022,
      "syner": 6023,
      "investing": 6024,
      "appreciation": 6025,
      "moratorium": 6026,
      "tens": 6027,
      "deadlines": 6028,
      "creative": 6029,
      "simpl": 6030,
      "reminded": 6031,
      "criticised": 6032,
      "adaptation": 6033,
      "characterised": 6034,
      "promising": 6035,
      "persecution": 6036,
      "likewise": 6037,
      "bry": 6038,
      "cancell": 6039,
      "print": 6040,
      "empty": 6041,
      "stopped": 6042,
      "remit": 6043,
      "verts": 6044,
      "ounce": 6045,
      "survival": 6046,
      "gir": 6047,
      "asian": 6048,
      "remained": 6049,
      "relief": 6050,
      "estimates": 6051,
      "thors": 6052,
      "roth": 6053,
      "lesson": 6054,
      "wake": 6055,
      "discriminatory": 6056,
      "infe": 6057,
      "guine": 6058,
      "hamas": 6059,
      "ideological": 6060,
      "asm": 6061,
      "undering": 6062,
      "subjected": 6063,
      "stimulate": 6064,
      "kurdish": 6065,
      "indirect": 6066,
      "demanded": 6067,
      "sensit": 6068,
      "kets": 6069,
      "worried": 6070,
      "earthqu": 6071,
      "rose": 6072,
      "refusal": 6073,
      "hiv": 6074,
      "asc": 6075,
      "dissemin": 6076,
      "bottom": 6077,
      "backs": 6078,
      "bun": 6079,
      "detain": 6080,
      "frag": 6081,
      "obtaining": 6082,
      "cli": 6083,
      "complied": 6084,
      "regulating": 6085,
      "scheduled": 6086,
      "roll": 6087,
      "guilty": 6088,
      "uz": 6089,
      "arians": 6090,
      "delicate": 6091,
      "hague": 6092,
      "registered": 6093,
      "everyday": 6094,
      "vietnam": 6095,
      "attract": 6096,
      "root": 6097,
      "unprecedent": 6098,
      "unprecedented": 6099,
      "uct": 6100,
      "icing": 6101,
      "liter": 6102,
      "sustained": 6103,
      "avoiding": 6104,
      "secretariat": 6105,
      "kil": 6106,
      "translation": 6107,
      "subs": 6108,
      "topics": 6109,
      "indonesia": 6110,
      "aly": 6111,
      "formally": 6112,
      "located": 6113,
      "reserved": 6114,
      "ki": 6115,
      "thoroughly": 6116,
      "aci": 6117,
      "mosco": 6118,
      "protectionism": 6119,
      "faces": 6120,
      "feeding": 6121,
      "gold": 6122,
      "ultimate": 6123,
      "contributes": 6124,
      "phr": 6125,
      "timor": 6126,
      "chief": 6127,
      "demonstration": 6128,
      "cun": 6129,
      "cture": 6130,
      "presidencies": 6131,
      "lly": 6132,
      "sures": 6133,
      "facilitating": 6134,
      "towns": 6135,
      "games": 6136,
      "ifiable": 6137,
      "genocide": 6138,
      "ibit": 6139,
      "dur": 6140,
      "resign": 6141,
      "victory": 6142,
      "gases": 6143,
      "ivoc": 6144,
      "withdrawn": 6145,
      "acerb": 6146,
      "exacerb": 6147,
      "cards": 6148,
      "channels": 6149,
      "confron": 6150,
      "embry": 6151,
      "lax": 6152,
      "heavily": 6153,
      "taiwan": 6154,
      "vac": 6155,
      "datab": 6156,
      "isolation": 6157,
      "underest": 6158,
      "selling": 6159,
      "acced": 6160,
      "montene": 6161,
      "equivoc": 6162,
      "cab": 6163,
      "removing": 6164,
      "analyse": 6165,
      "sectoral": 6166,
      "emphasises": 6167,
      "reviewed": 6168,
      "arises": 6169,
      "wars": 6170,
      "cepts": 6171,
      "remarkable": 6172,
      "inf": 6173,
      "incomes": 6174,
      "interpreted": 6175,
      "rape": 6176,
      "missible": 6177,
      "gaining": 6178,
      "wood": 6179,
      "rew": 6180,
      "returned": 6181,
      "contradiction": 6182,
      "pick": 6183,
      "structured": 6184,
      "biological": 6185,
      "clarified": 6186,
      "conscience": 6187,
      "box": 6188,
      "accompany": 6189,
      "tel": 6190,
      "specul": 6191,
      "realised": 6192,
      "pesticides": 6193,
      "lag": 6194,
      "exclude": 6195,
      "yal": 6196,
      "cease": 6197,
      "reverse": 6198,
      "indicates": 6199,
      "nutr": 6200,
      "split": 6201,
      "beneficiaries": 6202,
      "differently": 6203,
      "surprising": 6204,
      "trends": 6205,
      "odo": 6206,
      "reb": 6207,
      "ancies": 6208,
      "dual": 6209,
      "ulture": 6210,
      "persuade": 6211,
      "atmosphere": 6212,
      "iary": 6213,
      "recover": 6214,
      "gather": 6215,
      "abolish": 6216,
      "divide": 6217,
      "caucasus": 6218,
      "responding": 6219,
      "nity": 6220,
      "rect": 6221,
      "generous": 6222,
      "instability": 6223,
      "addresses": 6224,
      "patri": 6225,
      "illness": 6226,
      "safer": 6227,
      "served": 6228,
      "apolog": 6229,
      "propag": 6230,
      "blow": 6231,
      "wild": 6232,
      "termin": 6233,
      "recognising": 6234,
      "ah": 6235,
      "ek": 6236,
      "gulf": 6237,
      "pointing": 6238,
      "disparities": 6239,
      "isations": 6240,
      "artific": 6241,
      "arrested": 6242,
      "mano": 6243,
      "club": 6244,
      "abling": 6245,
      "symbo": 6246,
      "consists": 6247,
      "gall": 6248,
      "guid": 6249,
      "anywhere": 6250,
      "distur": 6251,
      "advances": 6252,
      "patents": 6253,
      "integral": 6254,
      "indispens": 6255,
      "eurostat": 6256,
      "miss": 6257,
      "arctic": 6258,
      "techni": 6259,
      "christians": 6260,
      "interventions": 6261,
      "elimination": 6262,
      "genetic": 6263,
      "vising": 6264,
      "eds": 6265,
      "governed": 6266,
      "strange": 6267,
      "monopolies": 6268,
      "enses": 6269,
      "quantity": 6270,
      "yor": 6271,
      "doors": 6272,
      "thinks": 6273,
      "relationships": 6274,
      "retail": 6275,
      "diverse": 6276,
      "disadvantage": 6277,
      "limiting": 6278,
      "concepts": 6279,
      "transnational": 6280,
      "monti": 6281,
      "threatening": 6282,
      "cros": 6283,
      "washing": 6284,
      "indispensable": 6285,
      "recession": 6286,
      "tock": 6287,
      "liqu": 6288,
      "prerequisite": 6289,
      "yield": 6290,
      "paris": 6291,
      "ensures": 6292,
      "cattle": 6293,
      "securing": 6294,
      "saddam": 6295,
      "parliamentarians": 6296,
      "itig": 6297,
      "messages": 6298,
      "kinno": 6299,
      "illegally": 6300,
      "manag": 6301,
      "madrid": 6302,
      "identification": 6303,
      "emphasize": 6304,
      "witnessed": 6305,
      "kinnock": 6306,
      "livestock": 6307,
      "selection": 6308,
      "euv": 6309,
      "ecd": 6310,
      "irresponsible": 6311,
      "knowing": 6312,
      "generated": 6313,
      "integrating": 6314,
      "believed": 6315,
      "oda": 6316,
      "availability": 6317,
      "enthusiasm": 6318,
      "symbolic": 6319,
      "len": 6320,
      "advisory": 6321,
      "moves": 6322,
      "mix": 6323,
      "meanwhile": 6324,
      "montenegro": 6325,
      "manoeuv": 6326,
      "exploited": 6327,
      "attempting": 6328,
      "nit": 6329,
      "inequality": 6330,
      "satisfy": 6331,
      "poet": 6332,
      "lihood": 6333,
      "remote": 6334,
      "donor": 6335,
      "unequivoc": 6336,
      "absor": 6337,
      "rier": 6338,
      "footing": 6339,
      "lowest": 6340,
      "flight": 6341,
      "describe": 6342,
      "fab": 6343,
      "kong": 6344,
      "licences": 6345,
      "quarter": 6346,
      "ched": 6347,
      "famous": 6348,
      "gorously": 6349,
      "iron": 6350,
      "missed": 6351,
      "hong": 6352,
      "owners": 6353,
      "sky": 6354,
      "isolated": 6355,
      "criticise": 6356,
      "manufacturing": 6357,
      "frontiers": 6358,
      "meal": 6359,
      "publicly": 6360,
      "organized": 6361,
      "formula": 6362,
      "ica": 6363,
      "burdens": 6364,
      "fan": 6365,
      "mobilisation": 6366,
      "dor": 6367,
      "combination": 6368,
      "twel": 6369,
      "ule": 6370,
      "plain": 6371,
      "genous": 6372,
      "dioxide": 6373,
      "york": 6374,
      "redi": 6375,
      "sti": 6376,
      "epide": 6377,
      "junction": 6378,
      "ires": 6379,
      "fere": 6380,
      "guided": 6381,
      "announcement": 6382,
      "philosophy": 6383,
      "thro": 6384,
      "conform": 6385,
      "caught": 6386,
      "confirms": 6387,
      "radi": 6388,
      "tribun": 6389,
      "energies": 6390,
      "martin": 6391,
      "ingredi": 6392,
      "earmarked": 6393,
      "strikes": 6394,
      "abolished": 6395,
      "punished": 6396,
      "cells": 6397,
      "counterfeiting": 6398,
      "icted": 6399,
      "priorit": 6400,
      "logically": 6401,
      "ukrain": 6402,
      "autonomous": 6403,
      "wonderful": 6404,
      "dates": 6405,
      "fly": 6406,
      "workforce": 6407,
      "strive": 6408,
      "ambiguous": 6409,
      "kha": 6410,
      "oppon": 6411,
      "milose": 6412,
      "emerge": 6413,
      "inevitable": 6414,
      "colombia": 6415,
      "ame": 6416,
      "vill": 6417,
      "aiming": 6418,
      "civilisation": 6419,
      "anger": 6420,
      "feels": 6421,
      "veterinary": 6422,
      "expenses": 6423,
      "extrem": 6424,
      "deteri": 6425,
      "milosevic": 6426,
      "unified": 6427,
      "conventional": 6428,
      "simplifying": 6429,
      "inations": 6430,
      "enhancing": 6431,
      "imf": 6432,
      "publication": 6433,
      "teachers": 6434,
      "aspirations": 6435,
      "anas": 6436,
      "units": 6437,
      "disgrace": 6438,
      "listed": 6439,
      "compr": 6440,
      "licence": 6441,
      "bold": 6442,
      "totalitarian": 6443,
      "abortion": 6444,
      "vague": 6445,
      "convincing": 6446,
      "ficially": 6447,
      "confidential": 6448,
      "enjoyed": 6449,
      "preference": 6450,
      "rain": 6451,
      "specified": 6452,
      "ordin": 6453,
      "invested": 6454,
      "requiring": 6455,
      "condemnation": 6456,
      "graphy": 6457,
      "online": 6458,
      "lays": 6459,
      "poorer": 6460,
      "pragmatic": 6461,
      "tremendous": 6462,
      "reproductive": 6463,
      "bananas": 6464,
      "arm": 6465,
      "ugg": 6466,
      "promotes": 6467,
      "combine": 6468,
      "focuses": 6469,
      "tabling": 6470,
      "directorate": 6471,
      "broken": 6472,
      "psycho": 6473,
      "rub": 6474,
      "veto": 6475,
      "reput": 6476,
      "ung": 6477,
      "weaknesses": 6478,
      "enforced": 6479,
      "privatisation": 6480,
      "uphold": 6481,
      "encouragement": 6482,
      "immen": 6483,
      "diag": 6484,
      "minors": 6485,
      "concluding": 6486,
      "immense": 6487,
      "expressly": 6488,
      "quantities": 6489,
      "controlling": 6490,
      "guinea": 6491,
      "packaging": 6492,
      "muslim": 6493,
      "feasible": 6494,
      "asmus": 6495,
      "backed": 6496,
      "remedy": 6497,
      "laundering": 6498,
      "cry": 6499,
      "copyright": 6500,
      "peripheral": 6501,
      "gratitude": 6502,
      "oecd": 6503,
      "incur": 6504,
      "ils": 6505,
      "accountable": 6506,
      "pit": 6507,
      "banning": 6508,
      "signals": 6509,
      "drinking": 6510,
      "multinationals": 6511,
      "finger": 6512,
      "ience": 6513,
      "noticed": 6514,
      "faster": 6515,
      "blair": 6516,
      "doctors": 6517,
      "rent": 6518,
      "workplace": 6519,
      "indirectly": 6520,
      "adjour": 6521,
      "handled": 6522,
      "exert": 6523,
      "agents": 6524,
      "problematic": 6525,
      "chancell": 6526,
      "postponed": 6527,
      "pipeline": 6528,
      "jar": 6529,
      "harbour": 6530,
      "floren": 6531,
      "delayed": 6532,
      "gments": 6533,
      "han": 6534,
      "mary": 6535,
      "rov": 6536,
      "pig": 6537,
      "nest": 6538,
      "vest": 6539,
      "stead": 6540,
      "airy": 6541,
      "cambo": 6542,
      "hydro": 6543,
      "slaughter": 6544,
      "guidance": 6545,
      "displaced": 6546,
      "understandable": 6547,
      "survive": 6548,
      "fleets": 6549,
      "neutral": 6550,
      "rhe": 6551,
      "suspension": 6552,
      "sl": 6553,
      "perce": 6554,
      "interoper": 6555,
      "caut": 6556,
      "judiciary": 6557,
      "complexity": 6558,
      "intelligence": 6559,
      "preferred": 6560,
      "grown": 6561,
      "station": 6562,
      "utter": 6563,
      "broadcasting": 6564,
      "cautious": 6565,
      "dairy": 6566,
      "pity": 6567,
      "leon": 6568,
      "conjunction": 6569,
      "positively": 6570,
      "medicine": 6571,
      "execution": 6572,
      "nigeria": 6573,
      "halt": 6574,
      "olympic": 6575,
      "stan": 6576,
      "god": 6577,
      "encourages": 6578,
      "preservation": 6579,
      "prohibit": 6580,
      "warming": 6581,
      "barn": 6582,
      "swe": 6583,
      "administrations": 6584,
      "harmonization": 6585,
      "determining": 6586,
      "haiti": 6587,
      "dedicated": 6588,
      "kel": 6589,
      "resolute": 6590,
      "secondary": 6591,
      "concentrated": 6592,
      "rhetor": 6593,
      "player": 6594,
      "recognize": 6595,
      "suppliers": 6596,
      "margin": 6597,
      "pluralism": 6598,
      "liquid": 6599,
      "mich": 6600,
      "eurozone": 6601,
      "organising": 6602,
      "sess": 6603,
      "input": 6604,
      "confin": 6605,
      "transmission": 6606,
      "archite": 6607,
      "deprived": 6608,
      "rol": 6609,
      "assad": 6610,
      "accepts": 6611,
      "write": 6612,
      "twelve": 6613,
      "imbalances": 6614,
      "ays": 6615,
      "ama": 6616,
      "hesit": 6617,
      "launching": 6618,
      "tunnel": 6619,
      "adjustments": 6620,
      "abandoned": 6621,
      "yers": 6622,
      "traceability": 6623,
      "ube": 6624,
      "establishes": 6625,
      "runs": 6626,
      "consolidated": 6627,
      "instruct": 6628,
      "officially": 6629,
      "sein": 6630,
      "decommission": 6631,
      "initiate": 6632,
      "complaint": 6633,
      "ario": 6634,
      "iii": 6635,
      "egf": 6636,
      "invent": 6637,
      "edge": 6638,
      "zones": 6639,
      "holi": 6640,
      "radioactive": 6641,
      "violated": 6642,
      "analyses": 6643,
      "charged": 6644,
      "surplus": 6645,
      "score": 6646,
      "acquired": 6647,
      "entrepreneurs": 6648,
      "uous": 6649,
      "weigh": 6650,
      "merit": 6651,
      "breaking": 6652,
      "allevi": 6653,
      "chancellor": 6654,
      "pret": 6655,
      "professionals": 6656,
      "cloning": 6657,
      "separation": 6658,
      "await": 6659,
      "deregulation": 6660,
      "balkan": 6661,
      "bridge": 6662,
      "brutal": 6663,
      "aer": 6664,
      "aret": 6665,
      "tension": 6666,
      "tensions": 6667,
      "barbar": 6668,
      "coalition": 6669,
      "hither": 6670,
      "reluct": 6671,
      "renewal": 6672,
      "itudes": 6673,
      "supr": 6674,
      "parado": 6675,
      "calm": 6676,
      "soft": 6677,
      "paradox": 6678,
      "disappointment": 6679,
      "smugg": 6680,
      "keste": 6681,
      "houses": 6682,
      "scra": 6683,
      "align": 6684,
      "ultane": 6685,
      "simultane": 6686,
      "sessions": 6687,
      "hitherto": 6688,
      "recon": 6689,
      "depending": 6690,
      "rejecting": 6691,
      "bai": 6692,
      "supran": 6693,
      "urged": 6694,
      "senior": 6695,
      "hide": 6696,
      "residents": 6697,
      "underpin": 6698,
      "elson": 6699,
      "eliminating": 6700,
      "eligible": 6701,
      "qua": 6702,
      "favoured": 6703,
      "defended": 6704,
      "explanatory": 6705,
      "fulfilling": 6706,
      "breed": 6707,
      "user": 6708,
      "wishing": 6709,
      "derogations": 6710,
      "customers": 6711,
      "reforming": 6712,
      "spectrum": 6713,
      "invitation": 6714,
      "preserving": 6715,
      "suddenly": 6716,
      "convey": 6717,
      "manifest": 6718,
      "tact": 6719,
      "implies": 6720,
      "telephone": 6721,
      "books": 6722,
      "substantive": 6723,
      "panel": 6724,
      "toys": 6725,
      "judges": 6726,
      "plic": 6727,
      "tably": 6728,
      "repair": 6729,
      "fragile": 6730,
      "devote": 6731,
      "voices": 6732,
      "supranational": 6733,
      "mixed": 6734,
      "bears": 6735,
      "eradic": 6736,
      "lae": 6737,
      "infringements": 6738,
      "prosecutor": 6739,
      "thetic": 6740,
      "resc": 6741,
      "pron": 6742,
      "components": 6743,
      "derogation": 6744,
      "rot": 6745,
      "girls": 6746,
      "lawyers": 6747,
      "organisms": 6748,
      "regrettably": 6749,
      "barnier": 6750,
      "shortage": 6751,
      "circulation": 6752,
      "entails": 6753,
      "finished": 6754,
      "paci": 6755,
      "admittedly": 6756,
      "armament": 6757,
      "beij": 6758,
      "threaten": 6759,
      "hoping": 6760,
      "deliberately": 6761,
      "laeken": 6762,
      "beijing": 6763,
      "enrich": 6764,
      "preferences": 6765,
      "continuous": 6766,
      "blocked": 6767,
      "diplomacy": 6768,
      "acio": 6769,
      "accom": 6770,
      "sheep": 6771,
      "subsidy": 6772,
      "formulated": 6773,
      "exemptions": 6774,
      "ja": 6775,
      "reactions": 6776,
      "rage": 6777,
      "misleading": 6778,
      "danube": 6779,
      "accompl": 6780,
      "trouble": 6781,
      "worker": 6782,
      "disability": 6783,
      "venture": 6784,
      "communicate": 6785,
      "conceal": 6786,
      "intolerable": 6787,
      "academ": 6788,
      "cile": 6789,
      "washington": 6790,
      "profess": 6791,
      "demonstrations": 6792,
      "gaps": 6793,
      "subscri": 6794,
      "arisen": 6795,
      "seats": 6796,
      "approving": 6797,
      "rigid": 6798,
      "cereal": 6799,
      "intense": 6800,
      "classification": 6801,
      "belonging": 6802,
      "summar": 6803,
      "delivery": 6804,
      "macroeconomic": 6805,
      "privileged": 6806,
      "inland": 6807,
      "carriers": 6808,
      "momentum": 6809,
      "wave": 6810,
      "refra": 6811,
      "cruel": 6812,
      "albanian": 6813,
      "unsatisfactory": 6814,
      "biotechnology": 6815,
      "advocates": 6816,
      "revealed": 6817,
      "returning": 6818,
      "supre": 6819,
      "papers": 6820,
      "aquac": 6821,
      "existed": 6822,
      "sooner": 6823,
      "salaries": 6824,
      "ridic": 6825,
      "domain": 6826,
      "optimistic": 6827,
      "river": 6828,
      "seemed": 6829,
      "engagement": 6830,
      "moscow": 6831,
      "ression": 6832,
      "swiftly": 6833,
      "profitable": 6834,
      "demonstrating": 6835,
      "michel": 6836,
      "formed": 6837,
      "inclusive": 6838,
      "profile": 6839,
      "sensitivity": 6840,
      "bare": 6841,
      "wis": 6842,
      "entr": 6843,
      "akis": 6844,
      "purchase": 6845,
      "reloc": 6846,
      "ferre": 6847,
      "continuity": 6848,
      "hussein": 6849,
      "shut": 6850,
      "harsh": 6851,
      "offence": 6852,
      "attini": 6853,
      "harass": 6854,
      "responded": 6855,
      "journey": 6856,
      "church": 6857,
      "frattini": 6858,
      "navig": 6859,
      "fasc": 6860,
      "ost": 6861,
      "oboda": 6862,
      "underlined": 6863,
      "swoboda": 6864,
      "capacities": 6865,
      "christmas": 6866,
      "cofinancing": 6867,
      "escape": 6868,
      "nationality": 6869,
      "conscious": 6870,
      "amp": 6871,
      "render": 6872,
      "authors": 6873,
      "intermedi": 6874,
      "palacio": 6875,
      "definitions": 6876,
      "aquaculture": 6877,
      "escal": 6878,
      "expresses": 6879,
      "detrimental": 6880,
      "identifying": 6881,
      "scarce": 6882,
      "aud": 6883,
      "operates": 6884,
      "viewed": 6885,
      "thoughts": 6886,
      "courageous": 6887,
      "contamination": 6888,
      "poul": 6889,
      "tues": 6890,
      "insecurity": 6891,
      "erika": 6892,
      "undermining": 6893,
      "bolkeste": 6894,
      "tariffs": 6895,
      "recruit": 6896,
      "eat": 6897,
      "ros": 6898,
      "indications": 6899,
      "bolkestein": 6900,
      "sun": 6901,
      "reim": 6902,
      "coni": 6903,
      "premature": 6904,
      "reassure": 6905,
      "merits": 6906,
      "hypocris": 6907,
      "xual": 6908,
      "osexual": 6909,
      "career": 6910,
      "learnt": 6911,
      "conservatives": 6912,
      "azer": 6913,
      "foresee": 6914,
      "distortions": 6915,
      "zo": 6916,
      "refusing": 6917,
      "mercur": 6918,
      "applaud": 6919,
      "theory": 6920,
      "weg": 6921,
      "regn": 6922,
      "departments": 6923,
      "tuesday": 6924,
      "hypocrisy": 6925,
      "pending": 6926,
      "recipi": 6927,
      "serbian": 6928,
      "lend": 6929,
      "worsen": 6930,
      "euratom": 6931,
      "lock": 6932,
      "fishery": 6933,
      "dominant": 6934,
      "issuing": 6935,
      "fix": 6936,
      "certific": 6937,
      "arbitrary": 6938,
      "drew": 6939,
      "knew": 6940,
      "touched": 6941,
      "mercury": 6942,
      "spon": 6943,
      "worthwhile": 6944,
      "complementary": 6945,
      "colonial": 6946,
      "cooperative": 6947,
      "rand": 6948,
      "airline": 6949,
      "redundancies": 6950,
      "conferences": 6951,
      "weekend": 6952,
      "dare": 6953,
      "wanting": 6954,
      "faire": 6955,
      "attitudes": 6956,
      "restriction": 6957,
      "poettering": 6958,
      "opponents": 6959,
      "beaut": 6960,
      "illusion": 6961,
      "ivo": 6962,
      "tourist": 6963,
      "advocated": 6964,
      "frequent": 6965,
      "awaiting": 6966,
      "streets": 6967,
      "discovered": 6968,
      "anyway": 6969,
      "incin": 6970,
      "automatic": 6971,
      "agger": 6972,
      "disappointing": 6973,
      "excise": 6974,
      "financially": 6975,
      "attended": 6976,
      "finds": 6977,
      "successes": 6978,
      "pursuit": 6979,
      "vigilant": 6980,
      "jean": 6981,
      "newly": 6982,
      "tware": 6983,
      "indigenous": 6984,
      "software": 6985,
      "reconcile": 6986,
      "prostitution": 6987,
      "meda": 6988,
      "electorate": 6989,
      "tendency": 6990,
      "ingredients": 6991,
      "summary": 6992,
      "objection": 6993,
      "porno": 6994,
      "massac": 6995,
      "ny": 6996,
      "appropriately": 6997,
      "adapting": 6998,
      "breaches": 6999,
      "hann": 7000,
      "compare": 7001,
      "reformed": 7002,
      "judgments": 7003,
      "tested": 7004,
      "evol": 7005,
      "mobilise": 7006,
      "contradictory": 7007,
      "oriented": 7008,
      "yards": 7009,
      "ethics": 7010,
      "certification": 7011,
      "scenario": 7012,
      "earthquake": 7013,
      "phrase": 7014,
      "phare": 7015,
      "enem": 7016,
      "lengthy": 7017,
      "darfur": 7018,
      "gon": 7019,
      "mitig": 7020,
      "aggress": 7021,
      "wholly": 7022,
      "confederal": 7023,
      "kilome": 7024,
      "propaganda": 7025,
      "geared": 7026,
      "officers": 7027,
      "killing": 7028,
      "settled": 7029,
      "pregn": 7030,
      "spot": 7031,
      "enko": 7032,
      "transportation": 7033,
      "ambassad": 7034,
      "destabil": 7035,
      "bankrupt": 7036,
      "acquire": 7037,
      "redundant": 7038,
      "interoperability": 7039,
      "phe": 7040,
      "impunity": 7041,
      "robust": 7042,
      "kilomet": 7043,
      "lining": 7044,
      "pira": 7045,
      "uen": 7046,
      "entities": 7047,
      "incidence": 7048,
      "page": 7049,
      "intr": 7050,
      "bigger": 7051,
      "anamo": 7052,
      "theme": 7053,
      "antanamo": 7054,
      "guantanamo": 7055,
      "fruitful": 7056,
      "constituents": 7057,
      "newspaper": 7058,
      "allies": 7059,
      "accum": 7060,
      "billions": 7061,
      "itives": 7062,
      "update": 7063,
      "cultivation": 7064,
      "pir": 7065,
      "assent": 7066,
      "liberty": 7067,
      "magn": 7068,
      "baijan": 7069,
      "azerbaijan": 7070,
      "condemning": 7071,
      "mutually": 7072,
      "weapon": 7073,
      "slowly": 7074,
      "inspectors": 7075,
      "rated": 7076,
      "cig": 7077,
      "excessively": 7078,
      "bone": 7079,
      "oce": 7080,
      "pted": 7081,
      "ita": 7082,
      "icip": 7083,
      "embra": 7084,
      "substit": 7085,
      "textiles": 7086,
      "municip": 7087,
      "este": 7088,
      "pling": 7089,
      "yugoslav": 7090,
      "speaks": 7091,
      "restra": 7092,
      "cuban": 7093,
      "switch": 7094,
      "tial": 7095,
      "permits": 7096,
      "cigaret": 7097,
      "chile": 7098,
      "fold": 7099,
      "akh": 7100,
      "belongs": 7101,
      "distinguish": 7102,
      "reception": 7103,
      "outline": 7104,
      "processed": 7105,
      "prejudice": 7106,
      "aring": 7107,
      "buying": 7108,
      "compensate": 7109,
      "restricting": 7110,
      "meaningful": 7111,
      "deployment": 7112,
      "ukrainian": 7113,
      "iop": 7114,
      "proportionality": 7115,
      "agreeing": 7116,
      "censure": 7117,
      "lah": 7118,
      "realities": 7119,
      "norway": 7120,
      "dav": 7121,
      "comfort": 7122,
      "costly": 7123,
      "bonds": 7124,
      "devastating": 7125,
      "deterioration": 7126,
      "tos": 7127,
      "reward": 7128,
      "basque": 7129,
      "incompatible": 7130,
      "recourse": 7131,
      "haul": 7132,
      "centuries": 7133,
      "expecting": 7134,
      "sharp": 7135,
      "techniques": 7136,
      "reimbur": 7137,
      "dil": 7138,
      "partially": 7139,
      "memory": 7140,
      "coins": 7141,
      "anybody": 7142,
      "capabilities": 7143,
      "crossing": 7144,
      "acute": 7145,
      "thirds": 7146,
      "reinforcing": 7147,
      "homosexual": 7148,
      "connections": 7149,
      "teaching": 7150,
      "tribunal": 7151,
      "rescue": 7152,
      "seve": 7153,
      "uted": 7154,
      "compass": 7155,
      "dimin": 7156,
      "survey": 7157,
      "disarmament": 7158,
      "founding": 7159,
      "undermined": 7160,
      "deliberations": 7161,
      "loud": 7162,
      "absent": 7163,
      "parame": 7164,
      "hoc": 7165,
      "discover": 7166,
      "piracy": 7167,
      "shel": 7168,
      "audi": 7169,
      "tali": 7170,
      "thirty": 7171,
      "cker": 7172,
      "bally": 7173,
      "nur": 7174,
      "ught": 7175,
      "supporters": 7176,
      "seriousness": 7177,
      "translated": 7178,
      "painful": 7179,
      "incomprehensible": 7180,
      "iful": 7181,
      "dol": 7182,
      "prisons": 7183,
      "tin": 7184,
      "deput": 7185,
      "cheaper": 7186,
      "differing": 7187,
      "thy": 7188,
      "reconcil": 7189,
      "trig": 7190,
      "disproportionate": 7191,
      "mentioning": 7192,
      "feelings": 7193,
      "camp": 7194,
      "collected": 7195,
      "mainstreaming": 7196,
      "ju": 7197,
      "attribut": 7198,
      "expo": 7199,
      "fee": 7200,
      "newspapers": 7201,
      "crates": 7202,
      "sentences": 7203,
      "apologise": 7204,
      "nn": 7205,
      "owe": 7206,
      "invo": 7207,
      "continually": 7208,
      "aterally": 7209,
      "technically": 7210,
      "cfp": 7211,
      "rhetoric": 7212,
      "reunification": 7213,
      "lder": 7214,
      "manoeuvre": 7215,
      "tone": 7216,
      "stood": 7217,
      "erity": 7218,
      "mcc": 7219,
      "lifting": 7220,
      "minimal": 7221,
      "owing": 7222,
      "modes": 7223,
      "hot": 7224,
      "limitations": 7225,
      "sam": 7226,
      "mothers": 7227,
      "theo": 7228,
      "decess": 7229,
      "mentions": 7230,
      "predecess": 7231,
      "qualitative": 7232,
      "securities": 7233,
      "vitally": 7234,
      "proactive": 7235,
      "naz": 7236,
      "gabe": 7237,
      "suspend": 7238,
      "awarded": 7239,
      "roles": 7240,
      "sahar": 7241,
      "presti": 7242,
      "dimensions": 7243,
      "prestige": 7244,
      "emotion": 7245,
      "coton": 7246,
      "drastic": 7247,
      "ficiencies": 7248,
      "grav": 7249,
      "mugabe": 7250,
      "severely": 7251,
      "reaffirm": 7252,
      "liberalization": 7253,
      "moderate": 7254,
      "motive": 7255,
      "py": 7256,
      "suspect": 7257,
      "merco": 7258,
      "blocking": 7259,
      "prohibition": 7260,
      "scour": 7261,
      "foss": 7262,
      "interfere": 7263,
      "contents": 7264,
      "judged": 7265,
      "assumed": 7266,
      "revise": 7267,
      "mercosur": 7268,
      "lia": 7269,
      "legislator": 7270,
      "allowances": 7271,
      "disregard": 7272,
      "argued": 7273,
      "eper": 7274,
      "elit": 7275,
      "lived": 7276,
      "forecasts": 7277,
      "spar": 7278,
      "instances": 7279,
      "wai": 7280,
      "relevance": 7281,
      "linking": 7282,
      "surances": 7283,
      "harmonising": 7284,
      "competitors": 7285,
      "complain": 7286,
      "murdered": 7287,
      "cotonou": 7288,
      "incapable": 7289,
      "workable": 7290,
      "foreseen": 7291,
      "lessly": 7292,
      "ruled": 7293,
      "habilit": 7294,
      "deemed": 7295,
      "entrust": 7296,
      "excellence": 7297,
      "osis": 7298,
      "quantitative": 7299,
      "street": 7300,
      "rehabilit": 7301,
      "unclear": 7302,
      "selt": 7303,
      "clothing": 7304,
      "scandalous": 7305,
      "tables": 7306,
      "wro": 7307,
      "remun": 7308,
      "cooperating": 7309,
      "debts": 7310,
      "letters": 7311,
      "recognized": 7312,
      "love": 7313,
      "hearings": 7314,
      "ars": 7315,
      "putin": 7316,
      "oted": 7317,
      "sin": 7318,
      "alities": 7319,
      "unjust": 7320,
      "posselt": 7321,
      "recommends": 7322,
      "lip": 7323,
      "produces": 7324,
      "drink": 7325,
      "sahara": 7326,
      "bean": 7327,
      "destination": 7328,
      "highlighting": 7329,
      "tank": 7330,
      "vian": 7331,
      "sakha": 7332,
      "organs": 7333,
      "labor": 7334,
      "ideology": 7335,
      "sakharov": 7336,
      "olive": 7337,
      "artificial": 7338,
      "encompass": 7339,
      "receives": 7340,
      "atories": 7341,
      "bin": 7342,
      "istribut": 7343,
      "trained": 7344,
      "additives": 7345,
      "decommissioning": 7346,
      "ez": 7347,
      "sends": 7348,
      "tender": 7349,
      "provo": 7350,
      "socrates": 7351,
      "informing": 7352,
      "fairer": 7353,
      "austerity": 7354,
      "conducting": 7355,
      "degrad": 7356,
      "opens": 7357,
      "assert": 7358,
      "installations": 7359,
      "pho": 7360,
      "confine": 7361,
      "redistribut": 7362,
      "lander": 7363,
      "cherno": 7364,
      "prosecution": 7365,
      "supplied": 7366,
      "measured": 7367,
      "retained": 7368,
      "simpler": 7369,
      "chernoby": 7370,
      "adhere": 7371,
      "presum": 7372,
      "dums": 7373,
      "referendums": 7374,
      "chapters": 7375,
      "prohibited": 7376,
      "duplic": 7377,
      "underlines": 7378,
      "equipped": 7379,
      "boundaries": 7380,
      "tolerate": 7381,
      "fossil": 7382,
      "chernobyl": 7383,
      "alan": 7384,
      "viability": 7385,
      "participated": 7386,
      "adays": 7387,
      "shoulder": 7388,
      "nowadays": 7389,
      "dependency": 7390,
      "radiation": 7391,
      "league": 7392,
      "maur": 7393,
      "intim": 7394,
      "lacks": 7395,
      "compatibility": 7396,
      "pushing": 7397,
      "nr": 7398,
      "iled": 7399,
      "protests": 7400,
      "indian": 7401,
      "precondition": 7402,
      "mining": 7403,
      "gues": 7404,
      "courses": 7405,
      "diversification": 7406,
      "scott": 7407,
      "altogether": 7408,
      "imprison": 7409,
      "possess": 7410,
      "maternity": 7411,
      "herent": 7412,
      "destroying": 7413,
      "indif": 7414,
      "summits": 7415,
      "handle": 7416,
      "facto": 7417,
      "activists": 7418,
      "austral": 7419,
      "jose": 7420,
      "guiding": 7421,
      "emphasising": 7422,
      "independently": 7423,
      "innovations": 7424,
      "professions": 7425,
      "spreading": 7426,
      "frontier": 7427,
      "confronted": 7428,
      "blan": 7429,
      "sters": 7430,
      "ghter": 7431,
      "lift": 7432,
      "countryside": 7433,
      "legislators": 7434,
      "luck": 7435,
      "inspired": 7436,
      "timber": 7437,
      "typical": 7438,
      "dismantling": 7439,
      "breast": 7440,
      "deepening": 7441,
      "psychological": 7442,
      "pressures": 7443,
      "asean": 7444,
      "restoring": 7445,
      "film": 7446,
      "racist": 7447,
      "enthusiast": 7448,
      "tacis": 7449,
      "hannes": 7450,
      "welcoming": 7451,
      "entirety": 7452,
      "pornography": 7453,
      "aggressive": 7454,
      "inherent": 7455,
      "replacing": 7456,
      "cancun": 7457,
      "phil": 7458,
      "mistaken": 7459,
      "creativity": 7460,
      "attempted": 7461,
      "distortion": 7462,
      "zem": 7463,
      "verification": 7464,
      "insisted": 7465,
      "attaches": 7466,
      "silent": 7467,
      "cles": 7468,
      "striking": 7469,
      "opposing": 7470,
      "suspicion": 7471,
      "reputation": 7472,
      "catastroph": 7473,
      "fon": 7474,
      "sand": 7475,
      "diam": 7476,
      "bran": 7477,
      "scene": 7478,
      "teams": 7479,
      "sme": 7480,
      "erasmus": 7481,
      "ilation": 7482,
      "depos": 7483,
      "globally": 7484,
      "aded": 7485,
      "mostly": 7486,
      "disagreement": 7487,
      "precar": 7488,
      "requesting": 7489,
      "separately": 7490,
      "uncertain": 7491,
      "trials": 7492,
      "methodo": 7493,
      "exposure": 7494,
      "extradition": 7495,
      "coexistence": 7496,
      "internally": 7497,
      "ferred": 7498,
      "motivated": 7499,
      "aire": 7500,
      "imped": 7501,
      "bulg": 7502,
      "hatred": 7503,
      "navigation": 7504,
      "bend": 7505,
      "appreciated": 7506,
      "records": 7507,
      "transformation": 7508,
      "injured": 7509,
      "duration": 7510,
      "unite": 7511,
      "chose": 7512,
      "protein": 7513,
      "anticipated": 7514,
      "kid": 7515,
      "prerog": 7516,
      "discrepan": 7517,
      "tho": 7518,
      "inspir": 7519,
      "successive": 7520,
      "standardisation": 7521,
      "threatens": 7522,
      "ethiop": 7523,
      "bulgarian": 7524,
      "kla": 7525,
      "edf": 7526,
      "corrid": 7527,
      "claiming": 7528,
      "precedence": 7529,
      "affordable": 7530,
      "bag": 7531,
      "ofar": 7532,
      "asset": 7533,
      "accusations": 7534,
      "expanding": 7535,
      "precarious": 7536,
      "toll": 7537,
      "insofar": 7538,
      "department": 7539,
      "database": 7540,
      "industrialised": 7541,
      "delivering": 7542,
      "refrain": 7543,
      "suit": 7544,
      "cow": 7545,
      "marri": 7546,
      "deplore": 7547,
      "screening": 7548,
      "wrote": 7549,
      "reck": 7550,
      "interven": 7551,
      "somewhere": 7552,
      "afterwards": 7553,
      "visits": 7554,
      "pattern": 7555,
      "discretion": 7556,
      "ineffective": 7557,
      "ango": 7558,
      "fell": 7559,
      "watson": 7560,
      "exempl": 7561,
      "ridiculous": 7562,
      "deple": 7563,
      "resid": 7564,
      "gratory": 7565,
      "slovenian": 7566,
      "cambodia": 7567,
      "england": 7568,
      "introduces": 7569,
      "sighted": 7570,
      "passion": 7571,
      "impartial": 7572,
      "migratory": 7573,
      "departure": 7574,
      "decrease": 7575,
      "atro": 7576,
      "pris": 7577,
      "shipbuilding": 7578,
      "hygi": 7579,
      "reactors": 7580,
      "schedule": 7581,
      "accompanying": 7582,
      "exemplary": 7583,
      "inability": 7584,
      "impressive": 7585,
      "redress": 7586,
      "identical": 7587,
      "reciprocity": 7588,
      "codif": 7589,
      "gothen": 7590,
      "addict": 7591,
      "questionable": 7592,
      "natura": 7593,
      "volunte": 7594,
      "entrepreneurship": 7595,
      "hid": 7596,
      "alled": 7597,
      "emen": 7598,
      "cosmet": 7599,
      "supreme": 7600,
      "sta": 7601,
      "illi": 7602,
      "unrealistic": 7603,
      "heat": 7604,
      "capitalist": 7605,
      "allocate": 7606,
      "quiet": 7607,
      "evil": 7608,
      "gothenburg": 7609,
      "disappeared": 7610,
      "eleven": 7611,
      "guardian": 7612,
      "convenience": 7613,
      "globalised": 7614,
      "occupational": 7615,
      "season": 7616,
      "pnr": 7617,
      "zue": 7618,
      "plenty": 7619,
      "ounced": 7620,
      "pical": 7621,
      "biot": 7622,
      "optimism": 7623,
      "vaccination": 7624,
      "tv": 7625,
      "tong": 7626,
      "finite": 7627,
      "dominated": 7628,
      "exceptionally": 7629,
      "exercising": 7630,
      "crow": 7631,
      "rian": 7632,
      "thrust": 7633,
      "outrage": 7634,
      "trialogue": 7635,
      "transposed": 7636,
      "formulate": 7637,
      "jeopardise": 7638,
      "lawful": 7639,
      "maxim": 7640,
      "usalem": 7641,
      "jerusalem": 7642,
      "sri": 7643,
      "disadvantages": 7644,
      "reasonably": 7645,
      "exercised": 7646,
      "perpetrators": 7647,
      "cypriot": 7648,
      "confined": 7649,
      "aus": 7650,
      "deeper": 7651,
      "eurojust": 7652,
      "loopho": 7653,
      "intra": 7654,
      "mira": 7655,
      "deterior": 7656,
      "conversion": 7657,
      "managers": 7658,
      "aria": 7659,
      "capt": 7660,
      "luk": 7661,
      "remem": 7662,
      "unresolved": 7663,
      "suic": 7664,
      "paramount": 7665,
      "hect": 7666,
      "emi": 7667,
      "reding": 7668,
      "antibiot": 7669,
      "breaks": 7670,
      "safeguarded": 7671,
      "armenia": 7672,
      "encoun": 7673,
      "style": 7674,
      "aston": 7675,
      "eldr": 7676,
      "secured": 7677,
      "taxpayer": 7678,
      "stad": 7679,
      "obligatory": 7680,
      "galic": 7681,
      "incorporating": 7682,
      "stipulates": 7683,
      "intimid": 7684,
      "onic": 7685,
      "provoc": 7686,
      "preferen": 7687,
      "johannes": 7688,
      "website": 7689,
      "outbreak": 7690,
      "duly": 7691,
      "permission": 7692,
      "ulated": 7693,
      "pride": 7694,
      "drag": 7695,
      "warn": 7696,
      "prevents": 7697,
      "gains": 7698,
      "sarko": 7699,
      "jarzem": 7700,
      "jarzembow": 7701,
      "thrown": 7702,
      "ara": 7703,
      "bered": 7704,
      "roadmap": 7705,
      "wallstrom": 7706,
      "lome": 7707,
      "tu": 7708,
      "repressive": 7709,
      "ander": 7710,
      "boy": 7711,
      "signature": 7712,
      "carib": 7713,
      "emergence": 7714,
      "israelis": 7715,
      "complying": 7716,
      "purchasing": 7717,
      "taliban": 7718,
      "preferential": 7719,
      "gm": 7720,
      "lus": 7721,
      "relocation": 7722,
      "assurances": 7723,
      "overcoming": 7724,
      "ministry": 7725,
      "strongest": 7726,
      "draws": 7727,
      "sentenced": 7728,
      "catches": 7729,
      "rigour": 7730,
      "sick": 7731,
      "parameters": 7732,
      "sarkozy": 7733,
      "jarzembowski": 7734,
      "andem": 7735,
      "nets": 7736,
      "voy": 7737,
      "boats": 7738,
      "chances": 7739,
      "airspace": 7740,
      "ilingual": 7741,
      "endeavours": 7742,
      "exceeded": 7743,
      "caribbean": 7744,
      "sund": 7745,
      "aten": 7746,
      "readmission": 7747,
      "john": 7748,
      "speedy": 7749,
      "envisage": 7750,
      "academic": 7751,
      "inser": 7752,
      "schro": 7753,
      "modernise": 7754,
      "imbalance": 7755,
      "exagger": 7756,
      "schmid": 7757,
      "investigated": 7758,
      "divisions": 7759,
      "reconsider": 7760,
      "regulators": 7761,
      "fairness": 7762,
      "frameworks": 7763,
      "witnessing": 7764,
      "fla": 7765,
      "alon": 7766,
      "entity": 7767,
      "servants": 7768,
      "confused": 7769,
      "assisting": 7770,
      "venezue": 7771,
      "harassment": 7772,
      "icts": 7773,
      "undi": 7774,
      "currencies": 7775,
      "stepping": 7776,
      "deliberate": 7777,
      "assumption": 7778,
      "recruitment": 7779,
      "waiver": 7780,
      "ero": 7781,
      "lege": 7782,
      "resume": 7783,
      "vessel": 7784,
      "minded": 7785,
      "circle": 7786,
      "salary": 7787,
      "eliminated": 7788,
      "judgement": 7789,
      "lims": 7790,
      "specialist": 7791,
      "sanction": 7792,
      "simultaneously": 7793,
      "bans": 7794,
      "upheld": 7795,
      "connect": 7796,
      "nationalism": 7797,
      "kov": 7798,
      "professor": 7799,
      "wisdom": 7800,
      "coverage": 7801,
      "promptly": 7802,
      "angle": 7803,
      "contracting": 7804,
      "korean": 7805,
      "evaluated": 7806,
      "splend": 7807,
      "ares": 7808,
      "reaf": 7809,
      "alive": 7810,
      "dub": 7811,
      "updated": 7812,
      "cc": 7813,
      "undes": 7814,
      "goodwill": 7815,
      "advise": 7816,
      "replacement": 7817,
      "restored": 7818,
      "imperialist": 7819,
      "fies": 7820,
      "lective": 7821,
      "abide": 7822,
      "urity": 7823,
      "regain": 7824,
      "broadband": 7825,
      "occurs": 7826,
      "submitting": 7827,
      "scourge": 7828,
      "shore": 7829,
      "strengthens": 7830,
      "maintains": 7831,
      "wasted": 7832,
      "nutrition": 7833,
      "pricing": 7834,
      "prosperous": 7835,
      "privilege": 7836,
      "hygiene": 7837,
      "flying": 7838,
      "sely": 7839,
      "ulate": 7840,
      "decides": 7841,
      "assuming": 7842,
      "dark": 7843,
      "anxious": 7844,
      "vitor": 7845,
      "treating": 7846,
      "understands": 7847,
      "centralised": 7848,
      "benefiting": 7849,
      "evaluating": 7850,
      "nowhere": 7851,
      "communaut": 7852,
      "emphat": 7853,
      "provisional": 7854,
      "champion": 7855,
      "pushed": 7856,
      "bic": 7857,
      "ori": 7858,
      "shops": 7859,
      "charging": 7860,
      "sporting": 7861,
      "iki": 7862,
      "emphatically": 7863,
      "multilingual": 7864,
      "occurring": 7865,
      "contractual": 7866,
      "troika": 7867,
      "alert": 7868,
      "sul": 7869,
      "pleasant": 7870,
      "livelihood": 7871,
      "exporting": 7872,
      "defenders": 7873,
      "margins": 7874,
      "alike": 7875,
      "rehabilitation": 7876,
      "rough": 7877,
      "deficiencies": 7878,
      "wheel": 7879,
      "concerted": 7880,
      "signatures": 7881,
      "hier": 7882,
      "weaker": 7883,
      "phenomena": 7884,
      "credits": 7885,
      "machin": 7886,
      "compliment": 7887,
      "splendid": 7888,
      "codes": 7889,
      "heres": 7890,
      "tract": 7891,
      "benefited": 7892,
      "multiple": 7893,
      "zing": 7894,
      "auer": 7895,
      "restoration": 7896,
      "archy": 7897,
      "barrier": 7898,
      "passive": 7899,
      "lifted": 7900,
      "selected": 7901,
      "communautaire": 7902,
      "langen": 7903,
      "description": 7904,
      "machinery": 7905,
      "smart": 7906,
      "unlikely": 7907,
      "foli": 7908,
      "hans": 7909,
      "ok": 7910,
      "ami": 7911,
      "polluter": 7912,
      "anticipate": 7913,
      "counting": 7914,
      "licens": 7915,
      "johannesburg": 7916,
      "serving": 7917,
      "approaching": 7918,
      "alarm": 7919,
      "decentralised": 7920,
      "dated": 7921,
      "gamb": 7922,
      "injustice": 7923,
      "derived": 7924,
      "biom": 7925,
      "assistants": 7926,
      "equitable": 7927,
      "acknowledges": 7928,
      "amaz": 7929,
      "handic": 7930,
      "abolishing": 7931,
      "arrival": 7932,
      "azo": 7933,
      "virtue": 7934,
      "labels": 7935,
      "pacific": 7936,
      "prolong": 7937,
      "oppression": 7938,
      "formation": 7939,
      "utterly": 7940,
      "poultry": 7941,
      "pred": 7942,
      "spare": 7943,
      "earn": 7944,
      "suggesting": 7945,
      "kaz": 7946,
      "eradication": 7947,
      "adjourned": 7948,
      "incorrect": 7949,
      "damaged": 7950,
      "ilaterally": 7951,
      "specify": 7952,
      "completing": 7953,
      "resumption": 7954,
      "observer": 7955,
      "bay": 7956,
      "spected": 7957,
      "ville": 7958,
      "straightforward": 7959,
      "tongue": 7960,
      "vitorino": 7961,
      "dies": 7962,
      "suspected": 7963,
      "skilled": 7964,
      "deployed": 7965,
      "unjustified": 7966,
      "adults": 7967,
      "vigorously": 7968,
      "dramatically": 7969,
      "genic": 7970,
      "turns": 7971,
      "individually": 7972,
      "vigilance": 7973,
      "smuggling": 7974,
      "cres": 7975,
      "jam": 7976,
      "oomen": 7977,
      "bett": 7978,
      "responsibly": 7979,
      "izes": 7980,
      "vegetable": 7981,
      "incredibly": 7982,
      "selective": 7983,
      "youn": 7984,
      "fines": 7985,
      "vegetables": 7986,
      "imprisoned": 7987,
      "km": 7988,
      "agon": 7989,
      "math": 7990,
      "consolidating": 7991,
      "ignoring": 7992,
      "corbett": 7993,
      "driver": 7994,
      "japanese": 7995,
      "fathers": 7996,
      "neglected": 7997,
      "hidden": 7998,
      "blat": 7999
    },
    "merges": [
      [
        "t",
        "h"
      ],
      [
        "th",
        "e"
      ],
      [
        "i",
        "n"
      ],
      [
        "o",
        "n"
      ],
      [
        "r",
        "e"
      ],
      [
        "a",
        "n"
      ],
      [
        "a",
        "t"
      ],
      [
        "e",
        "n"
      ],
      [
        "i",
        "s"
      ],
      [
        "e",
        "r"
      ],
      [
        "o",
        "r"
      ],
      [
        "a",
        "l"
      ],
      [
        "i",
        "on"
      ],
      [
        "t",
        "o"
      ],
      [
        "i",
        "t"
      ],
      [
        "o",
        "f"
      ],
      [
        "e",
        "s"
      ],
      [
        "o",
        "u"
      ],
      [
        "an",
        "d"
      ],
      [
        "e",
        "d"
      ],
      [
        "r",
        "o"
      ],
      [
        "a",
        "r"
      ],
      [
        "s",
        "t"
      ],
      [
        "in",
        "g"
      ],
      [
        "en",
        "t"
      ],
      [
        "i",
        "c"
      ],
      [
        "a",
        "s"
      ],
      [
        "l",
        "e"
      ],
      [
        "o",
        "m"
      ],
      [
        "b",
        "e"
      ],
      [
        "v",
        "e"
      ],
      [
        "th",
        "at"
      ],
      [
        "s",
        "e"
      ],
      [
        "w",
        "e"
      ],
      [
        "c",
        "t"
      ],
      [
        "p",
        "e"
      ],
      [
        "f",
        "or"
      ],
      [
        "i",
        "l"
      ],
      [
        "d",
        "e"
      ],
      [
        "l",
        "y"
      ],
      [
        "at",
        "ion"
      ],
      [
        "m",
        "ent"
      ],
      [
        "c",
        "om"
      ],
      [
        "w",
        "h"
      ],
      [
        "p",
        "ro"
      ],
      [
        "c",
        "on"
      ],
      [
        "n",
        "o"
      ],
      [
        "re",
        "s"
      ],
      [
        "u",
        "n"
      ],
      [
        "m",
        "e"
      ],
      [
        "p",
        "o"
      ],
      [
        "e",
        "u"
      ],
      [
        "s",
        "u"
      ],
      [
        "l",
        "i"
      ],
      [
        "th",
        "is"
      ],
      [
        "a",
        "re"
      ],
      [
        "c",
        "h"
      ],
      [
        "c",
        "e"
      ],
      [
        "h",
        "a"
      ],
      [
        "i",
        "d"
      ],
      [
        "u",
        "t"
      ],
      [
        "l",
        "d"
      ],
      [
        "r",
        "a"
      ],
      [
        "or",
        "t"
      ],
      [
        "s",
        "o"
      ],
      [
        "com",
        "m"
      ],
      [
        "v",
        "er"
      ],
      [
        "i",
        "m"
      ],
      [
        "eu",
        "ro"
      ],
      [
        "p",
        "ort"
      ],
      [
        "u",
        "l"
      ],
      [
        "w",
        "i"
      ],
      [
        "r",
        "i"
      ],
      [
        "euro",
        "pe"
      ],
      [
        "l",
        "o"
      ],
      [
        "wi",
        "th"
      ],
      [
        "no",
        "t"
      ],
      [
        "a",
        "b"
      ],
      [
        "c",
        "ou"
      ],
      [
        "a",
        "g"
      ],
      [
        "t",
        "e"
      ],
      [
        "a",
        "d"
      ],
      [
        "n",
        "e"
      ],
      [
        "il",
        "l"
      ],
      [
        "ha",
        "ve"
      ],
      [
        "i",
        "r"
      ],
      [
        "k",
        "e"
      ],
      [
        "t",
        "er"
      ],
      [
        "p",
        "ar"
      ],
      [
        "s",
        "ion"
      ],
      [
        "at",
        "e"
      ],
      [
        "g",
        "h"
      ],
      [
        "m",
        "o"
      ],
      [
        "ou",
        "ld"
      ],
      [
        "a",
        "y"
      ],
      [
        "ic",
        "h"
      ],
      [
        "u",
        "r"
      ],
      [
        "a",
        "m"
      ],
      [
        "it",
        "y"
      ],
      [
        "ou",
        "r"
      ],
      [
        "wh",
        "ich"
      ],
      [
        "o",
        "p"
      ],
      [
        "europe",
        "an"
      ],
      [
        "p",
        "res"
      ],
      [
        "s",
        "h"
      ],
      [
        "c",
        "i"
      ],
      [
        "e",
        "x"
      ],
      [
        "al",
        "l"
      ],
      [
        "u",
        "s"
      ],
      [
        "i",
        "ve"
      ],
      [
        "a",
        "c"
      ],
      [
        "b",
        "y"
      ],
      [
        "w",
        "ill"
      ],
      [
        "cou",
        "n"
      ],
      [
        "u",
        "st"
      ],
      [
        "t",
        "a"
      ],
      [
        "is",
        "sion"
      ],
      [
        "m",
        "a"
      ],
      [
        "h",
        "as"
      ],
      [
        "b",
        "er"
      ],
      [
        "es",
        "s"
      ],
      [
        "q",
        "u"
      ],
      [
        "t",
        "s"
      ],
      [
        "f",
        "e"
      ],
      [
        "i",
        "f"
      ],
      [
        "g",
        "e"
      ],
      [
        "the",
        "r"
      ],
      [
        "i",
        "es"
      ],
      [
        "comm",
        "ission"
      ],
      [
        "po",
        "s"
      ],
      [
        "m",
        "r"
      ],
      [
        "c",
        "o"
      ],
      [
        "en",
        "d"
      ],
      [
        "w",
        "or"
      ],
      [
        "an",
        "t"
      ],
      [
        "es",
        "t"
      ],
      [
        "a",
        "ct"
      ],
      [
        "m",
        "ber"
      ],
      [
        "d",
        "o"
      ],
      [
        "the",
        "re"
      ],
      [
        "h",
        "e"
      ],
      [
        "ou",
        "t"
      ],
      [
        "g",
        "o"
      ],
      [
        "a",
        "p"
      ],
      [
        "l",
        "ic"
      ],
      [
        "b",
        "ut"
      ],
      [
        "ion",
        "s"
      ],
      [
        "s",
        "i"
      ],
      [
        "f",
        "o"
      ],
      [
        "on",
        "e"
      ],
      [
        "er",
        "s"
      ],
      [
        "pres",
        "id"
      ],
      [
        "m",
        "an"
      ],
      [
        "t",
        "r"
      ],
      [
        "e",
        "m"
      ],
      [
        "h",
        "o"
      ],
      [
        "re",
        "g"
      ],
      [
        "l",
        "a"
      ],
      [
        "w",
        "ould"
      ],
      [
        "c",
        "an"
      ],
      [
        "al",
        "so"
      ],
      [
        "par",
        "t"
      ],
      [
        "a",
        "ment"
      ],
      [
        "me",
        "mber"
      ],
      [
        "sh",
        "ould"
      ],
      [
        "i",
        "v"
      ],
      [
        "ar",
        "d"
      ],
      [
        "presid",
        "ent"
      ],
      [
        "ro",
        "m"
      ],
      [
        "un",
        "d"
      ],
      [
        "al",
        "ly"
      ],
      [
        "f",
        "rom"
      ],
      [
        "re",
        "n"
      ],
      [
        "at",
        "es"
      ],
      [
        "b",
        "le"
      ],
      [
        "u",
        "re"
      ],
      [
        "ab",
        "le"
      ],
      [
        "st",
        "r"
      ],
      [
        "m",
        "ust"
      ],
      [
        "ver",
        "y"
      ],
      [
        "y",
        "ou"
      ],
      [
        "d",
        "u"
      ],
      [
        "v",
        "o"
      ],
      [
        "par",
        "li"
      ],
      [
        "parli",
        "ament"
      ],
      [
        "wor",
        "k"
      ],
      [
        "g",
        "r"
      ],
      [
        "is",
        "t"
      ],
      [
        "an",
        "s"
      ],
      [
        "ation",
        "s"
      ],
      [
        "a",
        "u"
      ],
      [
        "re",
        "e"
      ],
      [
        "gh",
        "t"
      ],
      [
        "p",
        "le"
      ],
      [
        "f",
        "in"
      ],
      [
        "v",
        "i"
      ],
      [
        "be",
        "en"
      ],
      [
        "un",
        "ion"
      ],
      [
        "it",
        "s"
      ],
      [
        "ment",
        "s"
      ],
      [
        "is",
        "h"
      ],
      [
        "d",
        "i"
      ],
      [
        "mo",
        "re"
      ],
      [
        "t",
        "i"
      ],
      [
        "t",
        "ri"
      ],
      [
        "re",
        "port"
      ],
      [
        "no",
        "w"
      ],
      [
        "ou",
        "s"
      ],
      [
        "s",
        "a"
      ],
      [
        "ci",
        "al"
      ],
      [
        "in",
        "t"
      ],
      [
        "re",
        "at"
      ],
      [
        "c",
        "r"
      ],
      [
        "st",
        "ates"
      ],
      [
        "f",
        "ic"
      ],
      [
        "o",
        "d"
      ],
      [
        "u",
        "d"
      ],
      [
        "fo",
        "re"
      ],
      [
        "o",
        "ther"
      ],
      [
        "ar",
        "y"
      ],
      [
        "p",
        "er"
      ],
      [
        "d",
        "is"
      ],
      [
        "p",
        "re"
      ],
      [
        "p",
        "port"
      ],
      [
        "w",
        "as"
      ],
      [
        "ne",
        "ed"
      ],
      [
        "c",
        "il"
      ],
      [
        "c",
        "ess"
      ],
      [
        "e",
        "f"
      ],
      [
        "ic",
        "al"
      ],
      [
        "c",
        "l"
      ],
      [
        "p",
        "l"
      ],
      [
        "li",
        "ke"
      ],
      [
        "the",
        "se"
      ],
      [
        "c",
        "er"
      ],
      [
        "an",
        "ce"
      ],
      [
        "the",
        "y"
      ],
      [
        "a",
        "in"
      ],
      [
        "for",
        "m"
      ],
      [
        "wh",
        "o"
      ],
      [
        "ul",
        "t"
      ],
      [
        "coun",
        "cil"
      ],
      [
        "wh",
        "at"
      ],
      [
        "the",
        "ir"
      ],
      [
        "ct",
        "ion"
      ],
      [
        "m",
        "in"
      ],
      [
        "l",
        "l"
      ],
      [
        "or",
        "d"
      ],
      [
        "y",
        "e"
      ],
      [
        "im",
        "port"
      ],
      [
        "po",
        "lic"
      ],
      [
        "e",
        "v"
      ],
      [
        "om",
        "e"
      ],
      [
        "k",
        "ing"
      ],
      [
        "a",
        "ch"
      ],
      [
        "u",
        "p"
      ],
      [
        "c",
        "y"
      ],
      [
        "m",
        "ar"
      ],
      [
        "in",
        "ter"
      ],
      [
        "p",
        "r"
      ],
      [
        "it",
        "ion"
      ],
      [
        "ct",
        "ive"
      ],
      [
        "o",
        "b"
      ],
      [
        "t",
        "ed"
      ],
      [
        "t",
        "ra"
      ],
      [
        "pro",
        "pos"
      ],
      [
        "c",
        "re"
      ],
      [
        "le",
        "g"
      ],
      [
        "on",
        "g"
      ],
      [
        "f",
        "a"
      ],
      [
        "ation",
        "al"
      ],
      [
        "s",
        "pe"
      ],
      [
        "m",
        "y"
      ],
      [
        "s",
        "er"
      ],
      [
        "th",
        "an"
      ],
      [
        "j",
        "e"
      ],
      [
        "a",
        "f"
      ],
      [
        "g",
        "n"
      ],
      [
        "s",
        "ome"
      ],
      [
        "g",
        "u"
      ],
      [
        "ne",
        "w"
      ],
      [
        "c",
        "es"
      ],
      [
        "tri",
        "es"
      ],
      [
        "it",
        "i"
      ],
      [
        "coun",
        "tries"
      ],
      [
        "w",
        "ay"
      ],
      [
        "in",
        "d"
      ],
      [
        "en",
        "ce"
      ],
      [
        "t",
        "ing"
      ],
      [
        "comm",
        "it"
      ],
      [
        "be",
        "t"
      ],
      [
        "pe",
        "op"
      ],
      [
        "at",
        "ed"
      ],
      [
        "lo",
        "w"
      ],
      [
        "lo",
        "p"
      ],
      [
        "ve",
        "lop"
      ],
      [
        "en",
        "s"
      ],
      [
        "de",
        "velop"
      ],
      [
        "c",
        "au"
      ],
      [
        "o",
        "l"
      ],
      [
        "c",
        "ur"
      ],
      [
        "is",
        "e"
      ],
      [
        "ab",
        "out"
      ],
      [
        "su",
        "pport"
      ],
      [
        "it",
        "ies"
      ],
      [
        "e",
        "con"
      ],
      [
        "f",
        "ir"
      ],
      [
        "ag",
        "ree"
      ],
      [
        "econ",
        "om"
      ],
      [
        "n",
        "ational"
      ],
      [
        "peop",
        "le"
      ],
      [
        "cau",
        "se"
      ],
      [
        "ag",
        "e"
      ],
      [
        "ti",
        "me"
      ],
      [
        "ou",
        "gh"
      ],
      [
        "ut",
        "ion"
      ],
      [
        "ye",
        "ar"
      ],
      [
        "f",
        "ul"
      ],
      [
        "import",
        "ant"
      ],
      [
        "c",
        "ed"
      ],
      [
        "polic",
        "y"
      ],
      [
        "on",
        "ly"
      ],
      [
        "m",
        "s"
      ],
      [
        "l",
        "it"
      ],
      [
        "wh",
        "e"
      ],
      [
        "d",
        "ay"
      ],
      [
        "con",
        "t"
      ],
      [
        "und",
        "er"
      ],
      [
        "ta",
        "in"
      ],
      [
        "part",
        "ic"
      ],
      [
        "re",
        "d"
      ],
      [
        "c",
        "le"
      ],
      [
        "a",
        "st"
      ],
      [
        "t",
        "y"
      ],
      [
        "be",
        "cause"
      ],
      [
        "il",
        "ity"
      ],
      [
        "an",
        "y"
      ],
      [
        "th",
        "ing"
      ],
      [
        "ag",
        "ain"
      ],
      [
        "en",
        "er"
      ],
      [
        "is",
        "su"
      ],
      [
        "j",
        "ust"
      ],
      [
        "je",
        "ct"
      ],
      [
        "w",
        "n"
      ],
      [
        "propos",
        "al"
      ],
      [
        "com",
        "e"
      ],
      [
        "qu",
        "est"
      ],
      [
        "te",
        "e"
      ],
      [
        "pro",
        "v"
      ],
      [
        "ou",
        "n"
      ],
      [
        "ul",
        "ar"
      ],
      [
        "e",
        "ve"
      ],
      [
        "di",
        "re"
      ],
      [
        "g",
        "y"
      ],
      [
        "gh",
        "ts"
      ],
      [
        "as",
        "e"
      ],
      [
        "ge",
        "t"
      ],
      [
        "o",
        "se"
      ],
      [
        "tr",
        "ans"
      ],
      [
        "pro",
        "g"
      ],
      [
        "f",
        "act"
      ],
      [
        "p",
        "t"
      ],
      [
        "cle",
        "ar"
      ],
      [
        "su",
        "ch"
      ],
      [
        "h",
        "u"
      ],
      [
        "the",
        "m"
      ],
      [
        "ac",
        "k"
      ],
      [
        "ri",
        "ghts"
      ],
      [
        "ta",
        "ke"
      ],
      [
        "comm",
        "un"
      ],
      [
        "ic",
        "e"
      ],
      [
        "f",
        "und"
      ],
      [
        "pe",
        "ct"
      ],
      [
        "po",
        "lit"
      ],
      [
        "i",
        "a"
      ],
      [
        "se",
        "l"
      ],
      [
        "there",
        "fore"
      ],
      [
        "pres",
        "ent"
      ],
      [
        "wh",
        "en"
      ],
      [
        "su",
        "b"
      ],
      [
        "fir",
        "st"
      ],
      [
        "d",
        "if"
      ],
      [
        "p",
        "ri"
      ],
      [
        "o",
        "ver"
      ],
      [
        "op",
        "er"
      ],
      [
        "b",
        "o"
      ],
      [
        "str",
        "u"
      ],
      [
        "de",
        "c"
      ],
      [
        "th",
        "ose"
      ],
      [
        "at",
        "ive"
      ],
      [
        "p",
        "on"
      ],
      [
        "u",
        "b"
      ],
      [
        "we",
        "ver"
      ],
      [
        "ho",
        "wever"
      ],
      [
        "partic",
        "ular"
      ],
      [
        "re",
        "l"
      ],
      [
        "in",
        "to"
      ],
      [
        "in",
        "te"
      ],
      [
        "con",
        "cer"
      ],
      [
        "econom",
        "ic"
      ],
      [
        "i",
        "p"
      ],
      [
        "si",
        "ble"
      ],
      [
        "s",
        "ay"
      ],
      [
        "i",
        "al"
      ],
      [
        "ma",
        "ke"
      ],
      [
        "pro",
        "du"
      ],
      [
        "as",
        "s"
      ],
      [
        "mar",
        "ke"
      ],
      [
        "u",
        "e"
      ],
      [
        "concer",
        "n"
      ],
      [
        "st",
        "it"
      ],
      [
        "fe",
        "ren"
      ],
      [
        "s",
        "y"
      ],
      [
        "we",
        "en"
      ],
      [
        "bet",
        "ween"
      ],
      [
        "m",
        "on"
      ],
      [
        "su",
        "re"
      ],
      [
        "u",
        "res"
      ],
      [
        "de",
        "b"
      ],
      [
        "am",
        "end"
      ],
      [
        "c",
        "ent"
      ],
      [
        "ou",
        "p"
      ],
      [
        "u",
        "m"
      ],
      [
        "gr",
        "oup"
      ],
      [
        "in",
        "e"
      ],
      [
        "pro",
        "ble"
      ],
      [
        "in",
        "k"
      ],
      [
        "commit",
        "tee"
      ],
      [
        "so",
        "cial"
      ],
      [
        "be",
        "ing"
      ],
      [
        "con",
        "d"
      ],
      [
        "tr",
        "y"
      ],
      [
        "ch",
        "an"
      ],
      [
        "com",
        "p"
      ],
      [
        "c",
        "us"
      ],
      [
        "man",
        "y"
      ],
      [
        "b",
        "as"
      ],
      [
        "res",
        "pon"
      ],
      [
        "po",
        "int"
      ],
      [
        "em",
        "p"
      ],
      [
        "re",
        "ad"
      ],
      [
        "be",
        "li"
      ],
      [
        "hu",
        "man"
      ],
      [
        "p",
        "ub"
      ],
      [
        "s",
        "it"
      ],
      [
        "ver",
        "n"
      ],
      [
        "go",
        "vern"
      ],
      [
        "b",
        "r"
      ],
      [
        "at",
        "ing"
      ],
      [
        "con",
        "s"
      ],
      [
        "m",
        "at"
      ],
      [
        "polit",
        "ical"
      ],
      [
        "res",
        "s"
      ],
      [
        "st",
        "ate"
      ],
      [
        "ma",
        "de"
      ],
      [
        "vi",
        "e"
      ],
      [
        "reg",
        "ard"
      ],
      [
        "cou",
        "r"
      ],
      [
        "i",
        "gh"
      ],
      [
        "x",
        "t"
      ],
      [
        "eu",
        "r"
      ],
      [
        "mo",
        "st"
      ],
      [
        "ord",
        "er"
      ],
      [
        "en",
        "cy"
      ],
      [
        "we",
        "re"
      ],
      [
        "re",
        "st"
      ],
      [
        "f",
        "i"
      ],
      [
        "pub",
        "lic"
      ],
      [
        "ur",
        "al"
      ],
      [
        "g",
        "reat"
      ],
      [
        "k",
        "now"
      ],
      [
        "m",
        "ed"
      ],
      [
        "u",
        "se"
      ],
      [
        "st",
        "and"
      ],
      [
        "n",
        "u"
      ],
      [
        "vie",
        "w"
      ],
      [
        "fin",
        "an"
      ],
      [
        "st",
        "em"
      ],
      [
        "oun",
        "d"
      ],
      [
        "beli",
        "eve"
      ],
      [
        "develop",
        "ment"
      ],
      [
        "k",
        "s"
      ],
      [
        "s",
        "p"
      ],
      [
        "whe",
        "re"
      ],
      [
        "al",
        "th"
      ],
      [
        "commission",
        "er"
      ],
      [
        "the",
        "n"
      ],
      [
        "ri",
        "ght"
      ],
      [
        "is",
        "ion"
      ],
      [
        "de",
        "mo"
      ],
      [
        "iv",
        "es"
      ],
      [
        "i",
        "ous"
      ],
      [
        "se",
        "e"
      ],
      [
        "b",
        "ud"
      ],
[...]
